#ifndef SYNTHETIC_AUTOENCODER_H
#define SYNTHETIC_AUTOENCODER_H

const unsigned char synthetic_autoencoder_tflite[] = {
0x20, 0x00, 0x00, 0x00, 0x54, 0x46, 0x4c, 0x33, 0x00, 0x00, 0x00, 0x00, 
0x14, 0x00, 0x20, 0x00, 0x1c, 0x00, 0x18, 0x00, 0x14, 0x00, 0x10, 0x00, 
0x0c, 0x00, 0x00, 0x00, 0x08, 0x00, 0x04, 0x00, 0x14, 0x00, 0x00, 0x00, 
0x1c, 0x00, 0x00, 0x00, 0x8c, 0x00, 0x00, 0x00, 0xe4, 0x00, 0x00, 0x00, 
0xf8, 0x0a, 0x00, 0x00, 0x08, 0x0b, 0x00, 0x00, 0xe4, 0x3f, 0x00, 0x00, 
0x03, 0x00, 0x00, 0x00, 0x01, 0x00, 0x00, 0x00, 0x04, 0x00, 0x00, 0x00, 
0x96, 0xed, 0xff, 0xff, 0x0c, 0x00, 0x00, 0x00, 0x1c, 0x00, 0x00, 0x00, 
0x3c, 0x00, 0x00, 0x00, 0x0f, 0x00, 0x00, 0x00, 0x73, 0x65, 0x72, 0x76, 
0x69, 0x6e, 0x67, 0x5f, 0x64, 0x65, 0x66, 0x61, 0x75, 0x6c, 0x74, 0x00, 
0x01, 0x00, 0x00, 0x00, 0x04, 0x00, 0x00, 0x00, 0x90, 0xff, 0xff, 0xff, 
0x3e, 0x00, 0x00, 0x00, 0x04, 0x00, 0x00, 0x00, 0x08, 0x00, 0x00, 0x00, 
0x6f, 0x75, 0x74, 0x70, 0x75, 0x74, 0x5f, 0x30, 0x00, 0x00, 0x00, 0x00, 
0x01, 0x00, 0x00, 0x00, 0x04, 0x00, 0x00, 0x00, 0x5e, 0xf0, 0xff, 0xff, 
0x04, 0x00, 0x00, 0x00, 0x0f, 0x00, 0x00, 0x00, 0x6b, 0x65, 0x72, 0x61, 
0x73, 0x5f, 0x74, 0x65, 0x6e, 0x73, 0x6f, 0x72, 0x5f, 0x31, 0x32, 0x00, 
0x02, 0x00, 0x00, 0x00, 0x34, 0x00, 0x00, 0x00, 0x04, 0x00, 0x00, 0x00, 
0xdc, 0xff, 0xff, 0xff, 0x41, 0x00, 0x00, 0x00, 0x04, 0x00, 0x00, 0x00, 
0x13, 0x00, 0x00, 0x00, 0x43, 0x4f, 0x4e, 0x56, 0x45, 0x52, 0x53, 0x49, 
0x4f, 0x4e, 0x5f, 0x4d, 0x45, 0x54, 0x41, 0x44, 0x41, 0x54, 0x41, 0x00, 
0x08, 0x00, 0x0c, 0x00, 0x08, 0x00, 0x04, 0x00, 0x08, 0x00, 0x00, 0x00, 
0x40, 0x00, 0x00, 0x00, 0x04, 0x00, 0x00, 0x00, 0x13, 0x00, 0x00, 0x00, 
0x6d, 0x69, 0x6e, 0x5f, 0x72, 0x75, 0x6e, 0x74, 0x69, 0x6d, 0x65, 0x5f, 
0x76, 0x65, 0x72, 0x73, 0x69, 0x6f, 0x6e, 0x00, 0x42, 0x00, 0x00, 0x00, 
0x10, 0x0a, 0x00, 0x00, 0x08, 0x0a, 0x00, 0x00, 0xf4, 0x09, 0x00, 0x00, 
0xd8, 0x09, 0x00, 0x00, 0xc4, 0x09, 0x00, 0x00, 0xa8, 0x09, 0x00, 0x00, 
0x8c, 0x09, 0x00, 0x00, 0x70, 0x09, 0x00, 0x00, 0x5c, 0x09, 0x00, 0x00, 
0x54, 0x09, 0x00, 0x00, 0x40, 0x09, 0x00, 0x00, 0x2c, 0x09, 0x00, 0x00, 
0x18, 0x09, 0x00, 0x00, 0x00, 0x09, 0x00, 0x00, 0xe8, 0x08, 0x00, 0x00, 
0xcc, 0x08, 0x00, 0x00, 0xb4, 0x08, 0x00, 0x00, 0x44, 0x08, 0x00, 0x00, 
0xf4, 0x07, 0x00, 0x00, 0x64, 0x06, 0x00, 0x00, 0xb4, 0x05, 0x00, 0x00, 
0x04, 0x05, 0x00, 0x00, 0xe4, 0x04, 0x00, 0x00, 0x34, 0x04, 0x00, 0x00, 
0x04, 0x04, 0x00, 0x00, 0x74, 0x02, 0x00, 0x00, 0x24, 0x02, 0x00, 0x00, 
0xb4, 0x01, 0x00, 0x00, 0xac, 0x01, 0x00, 0x00, 0xa4, 0x01, 0x00, 0x00, 
0x9c, 0x01, 0x00, 0x00, 0x94, 0x01, 0x00, 0x00, 0x8c, 0x01, 0x00, 0x00, 
0x84, 0x01, 0x00, 0x00, 0x7c, 0x01, 0x00, 0x00, 0x74, 0x01, 0x00, 0x00, 
0x6c, 0x01, 0x00, 0x00, 0x64, 0x01, 0x00, 0x00, 0x5c, 0x01, 0x00, 0x00, 
0x54, 0x01, 0x00, 0x00, 0x4c, 0x01, 0x00, 0x00, 0x44, 0x01, 0x00, 0x00, 
0x3c, 0x01, 0x00, 0x00, 0x34, 0x01, 0x00, 0x00, 0x2c, 0x01, 0x00, 0x00, 
0x24, 0x01, 0x00, 0x00, 0x1c, 0x01, 0x00, 0x00, 0x14, 0x01, 0x00, 0x00, 
0x0c, 0x01, 0x00, 0x00, 0x04, 0x01, 0x00, 0x00, 0xfc, 0x00, 0x00, 0x00, 
0xf4, 0x00, 0x00, 0x00, 0xec, 0x00, 0x00, 0x00, 0xe4, 0x00, 0x00, 0x00, 
0xdc, 0x00, 0x00, 0x00, 0xd4, 0x00, 0x00, 0x00, 0xcc, 0x00, 0x00, 0x00, 
0xc4, 0x00, 0x00, 0x00, 0xbc, 0x00, 0x00, 0x00, 0xb4, 0x00, 0x00, 0x00, 
0xac, 0x00, 0x00, 0x00, 0xa4, 0x00, 0x00, 0x00, 0x9c, 0x00, 0x00, 0x00, 
0x94, 0x00, 0x00, 0x00, 0x74, 0x00, 0x00, 0x00, 0x04, 0x00, 0x00, 0x00, 
0xe2, 0xf1, 0xff, 0xff, 0x04, 0x00, 0x00, 0x00, 0x60, 0x00, 0x00, 0x00, 
0x0c, 0x00, 0x00, 0x00, 0x08, 0x00, 0x0e, 0x00, 0x08, 0x00, 0x04, 0x00, 
0x08, 0x00, 0x00, 0x00, 0x10, 0x00, 0x00, 0x00, 0x28, 0x00, 0x00, 0x00, 
0x00, 0x00, 0x06, 0x00, 0x08, 0x00, 0x04, 0x00, 0x06, 0x00, 0x00, 0x00, 
0x04, 0x00, 0x00, 0x00, 0x01, 0x00, 0x00, 0x00, 0xeb, 0x03, 0x00, 0x00, 
0x0c, 0x00, 0x18, 0x00, 0x14, 0x00, 0x10, 0x00, 0x0c, 0x00, 0x04, 0x00, 
0x0c, 0x00, 0x00, 0x00, 0x95, 0xee, 0x0c, 0x8d, 0xb6, 0x8f, 0xa9, 0xe3, 
0x02, 0x00, 0x00, 0x00, 0x02, 0x00, 0x00, 0x00, 0x04, 0x00, 0x00, 0x00, 
0x06, 0x00, 0x00, 0x00, 0x32, 0x2e, 0x32, 0x31, 0x2e, 0x30, 0x00, 0x00, 
0x4e, 0xf2, 0xff, 0xff, 0x04, 0x00, 0x00, 0x00, 0x10, 0x00, 0x00, 0x00, 
0x32, 0x2e, 0x31, 0x33, 0x2e, 0x30, 0x00, 0x00, 0x00, 0x00, 0x00, 0x00, 
0x00, 0x00, 0x00, 0x00, 0x58, 0xc3, 0xff, 0xff, 0x5c, 0xc3, 0xff, 0xff, 
0x60, 0xc3, 0xff, 0xff, 0x64, 0xc3, 0xff, 0xff, 0x68, 0xc3, 0xff, 0xff, 
0x6c, 0xc3, 0xff, 0xff, 0x70, 0xc3, 0xff, 0xff, 0x74, 0xc3, 0xff, 0xff, 
0x78, 0xc3, 0xff, 0xff, 0x7c, 0xc3, 0xff, 0xff, 0x80, 0xc3, 0xff, 0xff, 
0x84, 0xc3, 0xff, 0xff, 0x88, 0xc3, 0xff, 0xff, 0x8c, 0xc3, 0xff, 0xff, 
0x90, 0xc3, 0xff, 0xff, 0x94, 0xc3, 0xff, 0xff, 0x98, 0xc3, 0xff, 0xff, 
0x9c, 0xc3, 0xff, 0xff, 0xa0, 0xc3, 0xff, 0xff, 0xa4, 0xc3, 0xff, 0xff, 
0xa8, 0xc3, 0xff, 0xff, 0xac, 0xc3, 0xff, 0xff, 0xb0, 0xc3, 0xff, 0xff, 
0xb4, 0xc3, 0xff, 0xff, 0xb8, 0xc3, 0xff, 0xff, 0xbc, 0xc3, 0xff, 0xff, 
0xc0, 0xc3, 0xff, 0xff, 0xc4, 0xc3, 0xff, 0xff, 0xc8, 0xc3, 0xff, 0xff, 
0xcc, 0xc3, 0xff, 0xff, 0xd0, 0xc3, 0xff, 0xff, 0xd4, 0xc3, 0xff, 0xff, 
0xd8, 0xc3, 0xff, 0xff, 0xdc, 0xc3, 0xff, 0xff, 0xe0, 0xc3, 0xff, 0xff, 
0xe4, 0xc3, 0xff, 0xff, 0xfa, 0xf2, 0xff, 0xff, 0x04, 0x00, 0x00, 0x00, 
0x60, 0x00, 0x00, 0x00, 0xf3, 0x96, 0x8a, 0x60, 0x81, 0x0a, 0xf9, 0x1e, 
0x15, 0x81, 0x9f, 0x15, 0x86, 0xc8, 0x81, 0x9e, 0x55, 0xec, 0x0f, 0x9b, 
0x87, 0x43, 0x7f, 0xa8, 0x3a, 0xc4, 0x7f, 0x54, 0x00, 0x27, 0xb6, 0x7f, 
0xb7, 0x38, 0x22, 0xd0, 0x54, 0x50, 0x81, 0x07, 0x01, 0x37, 0x57, 0x7f, 
0x3e, 0x39, 0x51, 0x4d, 0xd4, 0x81, 0x4b, 0x3a, 0xe6, 0xb1, 0x3b, 0x81, 
0x09, 0xd1, 0xdf, 0xfd, 0xc9, 0x6d, 0x29, 0x00, 0x38, 0x7f, 0xd5, 0xb1, 
0x81, 0xb5, 0xb8, 0xfe, 0x9f, 0xf0, 0x48, 0xd8, 0x99, 0x81, 0x4d, 0x3f, 
0x0f, 0x7f, 0x9e, 0x3a, 0xd9, 0x09, 0xe0, 0x13, 0x7f, 0xf1, 0x21, 0xcc, 
0x2d, 0xe2, 0xee, 0x81, 0x66, 0xf3, 0xff, 0xff, 0x04, 0x00, 0x00, 0x00, 
0x40, 0x00, 0x00, 0x00, 0xbd, 0x1c, 0x00, 0x00, 0xb8, 0x16, 0x00, 0x00, 
0x8f, 0x16, 0x00, 0x00, 0x14, 0x18, 0x00, 0x00, 0x32, 0x09, 0x00, 0x00, 
0xc7, 0x23, 0x00, 0x00, 0xa0, 0x13, 0x00, 0x00, 0xb1, 0xfd, 0xff, 0xff, 
0x7e, 0xf6, 0xff, 0xff, 0x5a, 0x18, 0x00, 0x00, 0x78, 0x04, 0x00, 0x00, 
0x28, 0x0e, 0x00, 0x00, 0xe7, 0x12, 0x00, 0x00, 0x77, 0xe3, 0xff, 0xff, 
0xae, 0x10, 0x00, 0x00, 0x18, 0xfe, 0xff, 0xff, 0xb2, 0xf3, 0xff, 0xff, 
0x04, 0x00, 0x00, 0x00, 0x80, 0x01, 0x00, 0x00, 0x1e, 0x14, 0x2e, 0x6d, 
0x20, 0x2d, 0x45, 0x0d, 0x03, 0x55, 0xc3, 0x50, 0x30, 0xcf, 0x2c, 0x06, 
0x26, 0x23, 0x14, 0x1c, 0xf0, 0x46, 0xff, 0x2c, 0xf7, 0x31, 0x40, 0x3f, 
0xd9, 0xcd, 0x11, 0xf4, 0x6b, 0x61, 0x4e, 0x47, 0x32, 0x13, 0x4e, 0xad, 
0xfc, 0x77, 0xa9, 0x2b, 0x5c, 0x81, 0x25, 0xf5, 0xac, 0x0e, 0xf1, 0xed, 
0x7f, 0xd7, 0xe0, 0x2b, 0xe5, 0xfc, 0x0f, 0xd5, 0x4f, 0x50, 0x09, 0xde, 
0xfb, 0xed, 0xf4, 0xe4, 0x49, 0xc5, 0x3c, 0x59, 0xeb, 0xe6, 0xc4, 0xdd, 
0x0c, 0xa7, 0x0c, 0xdd, 0xcd, 0xac, 0x3c, 0xdf, 0x68, 0xea, 0xf4, 0x47, 
0xbf, 0x58, 0xb7, 0xc2, 0x1a, 0x1b, 0x28, 0x79, 0x19, 0xc9, 0xc9, 0x11, 
0x59, 0x28, 0xeb, 0x2d, 0xe8, 0xed, 0x24, 0x69, 0xd3, 0x28, 0xf4, 0xf1, 
0x2c, 0xf6, 0xc3, 0x14, 0x34, 0xc9, 0xc4, 0x4c, 0x24, 0x18, 0x3c, 0x17, 
0x33, 0xec, 0x36, 0xf7, 0x02, 0xd6, 0x9e, 0x12, 0xfd, 0xd2, 0xba, 0xc9, 
0x81, 0x37, 0x5f, 0x23, 0xdb, 0xf6, 0x31, 0x44, 0x2f, 0xf7, 0x1b, 0xe0, 
0x0b, 0x38, 0x63, 0x2b, 0xb5, 0xd3, 0x2c, 0x3d, 0xeb, 0x59, 0x90, 0xcf, 
0x04, 0x30, 0xc1, 0xd0, 0x06, 0x71, 0x3c, 0x32, 0x08, 0x07, 0xed, 0x34, 
0xde, 0x16, 0xd8, 0xd6, 0x02, 0x29, 0x2c, 0xcd, 0x33, 0x5c, 0x10, 0x4f, 
0xec, 0xfa, 0x46, 0xfc, 0xe8, 0x7f, 0xf4, 0xe2, 0x4f, 0x2c, 0x31, 0x2b, 
0xf4, 0xd5, 0x2d, 0xe8, 0x64, 0x59, 0x0a, 0x3a, 0x59, 0xea, 0x11, 0x15, 
0x36, 0x7f, 0x40, 0x32, 0x45, 0x39, 0x54, 0xe4, 0xd9, 0x01, 0x20, 0x10, 
0x40, 0x9f, 0x10, 0x38, 0x7d, 0x1a, 0x4e, 0x47, 0xf8, 0x26, 0x54, 0x17, 
0xe6, 0xf0, 0xff, 0x12, 0x05, 0xc5, 0xc0, 0xc3, 0x23, 0x04, 0x4e, 0xad, 
0xde, 0x44, 0x25, 0xfd, 0xa4, 0xe6, 0x08, 0xee, 0x3e, 0x81, 0xeb, 0xe7, 
0x0a, 0x02, 0x2f, 0xa6, 0x76, 0x22, 0x39, 0xf6, 0x3a, 0xe2, 0x51, 0x2e, 
0x03, 0x16, 0x10, 0xec, 0x43, 0x16, 0x1b, 0xca, 0x0f, 0x43, 0x0f, 0xde, 
0x3e, 0xed, 0xec, 0xf8, 0xd5, 0x4d, 0x25, 0x37, 0x2d, 0xe9, 0x34, 0xec, 
0x01, 0x6a, 0x62, 0xf0, 0xd4, 0x81, 0x1f, 0xe3, 0x22, 0xa2, 0x62, 0xa1, 
0x23, 0xf9, 0x55, 0x9a, 0xcb, 0xfe, 0x54, 0xae, 0xec, 0x0b, 0x67, 0xd4, 
0xd0, 0x62, 0x1a, 0x7e, 0x7a, 0x7f, 0x9c, 0x0f, 0x23, 0x7d, 0x4b, 0x1e, 
0x0d, 0x04, 0x15, 0x2f, 0xbe, 0x11, 0xf4, 0x9c, 0xee, 0x55, 0xcc, 0xe9, 
0x6b, 0x2c, 0x1c, 0x68, 0xf5, 0x3c, 0xc3, 0xcf, 0x04, 0xed, 0x6d, 0xfd, 
0xe0, 0xd7, 0xcd, 0x2e, 0x64, 0x15, 0x1d, 0x1c, 0xc4, 0x02, 0x20, 0xb3, 
0x70, 0xfc, 0x5e, 0xfe, 0xf8, 0xe2, 0x40, 0xf0, 0x42, 0x31, 0xe8, 0x7f, 
0xa8, 0xe4, 0x4b, 0xb3, 0xc6, 0xe9, 0xfb, 0x1c, 0x3e, 0xf5, 0xff, 0xff, 
0x04, 0x00, 0x00, 0x00, 0x20, 0x00, 0x00, 0x00, 0xf8, 0x17, 0x00, 0x00, 
0x5b, 0x03, 0x00, 0x00, 0x3f, 0x0b, 0x00, 0x00, 0x64, 0x09, 0x00, 0x00, 
0x1f, 0x17, 0x00, 0x00, 0x48, 0xfc, 0xff, 0xff, 0xed, 0x1a, 0x00, 0x00, 
0x3b, 0x23, 0x00, 0x00, 0x6a, 0xf5, 0xff, 0xff, 0x04, 0x00, 0x00, 0x00, 
0xa0, 0x00, 0x00, 0x00, 0x2e, 0xbf, 0xd8, 0x2c, 0x35, 0x02, 0x17, 0xd3, 
0xd5, 0xed, 0xf4, 0x4c, 0x28, 0xfb, 0x7f, 0x05, 0x01, 0xcf, 0xd5, 0xdb, 
0xec, 0x52, 0x3c, 0x1e, 0x0c, 0xcd, 0x3c, 0x11, 0xfc, 0x33, 0x3c, 0xf8, 
0x5b, 0x1d, 0xe6, 0xc6, 0xed, 0x35, 0x10, 0x97, 0x49, 0xfd, 0xda, 0xec, 
0x4a, 0xfd, 0xc2, 0xb3, 0xfb, 0xbd, 0xe5, 0xf1, 0x7f, 0x11, 0xf2, 0xcc, 
0xd4, 0x24, 0x4a, 0xb4, 0xee, 0x30, 0x40, 0x66, 0xe1, 0x99, 0xbe, 0x2a, 
0x5b, 0x05, 0xdb, 0x1e, 0xe6, 0x81, 0xe9, 0x66, 0x2c, 0x7a, 0x3e, 0x12, 
0x33, 0xb0, 0x2c, 0x4f, 0x09, 0xd5, 0x55, 0xef, 0x03, 0xd7, 0x0c, 0xf8, 
0x28, 0x16, 0x00, 0xfa, 0x35, 0x34, 0x1e, 0xbe, 0xdd, 0xb9, 0xe9, 0x11, 
0x7f, 0x0e, 0x8e, 0xcb, 0x4f, 0xe4, 0xcd, 0x93, 0x66, 0x8e, 0xc7, 0x1d, 
0x47, 0xf6, 0x36, 0x0d, 0x32, 0x00, 0xca, 0x21, 0xf1, 0x13, 0xc6, 0x06, 
0x4d, 0xd3, 0xf4, 0xd2, 0x45, 0xc0, 0x2d, 0xbd, 0x5b, 0x9d, 0xe1, 0x18, 
0x5b, 0x54, 0x41, 0x81, 0x3c, 0xf1, 0xf6, 0xd0, 0x03, 0x26, 0x4c, 0xe6, 
0x2e, 0xb7, 0xa8, 0x3f, 0x38, 0xd8, 0x75, 0x11, 0x16, 0xf6, 0xff, 0xff, 
0x04, 0x00, 0x00, 0x00, 0x10, 0x00, 0x00, 0x00, 0xdc, 0x02, 0x00, 0x00, 
0x22, 0x03, 0x00, 0x00, 0xd7, 0x06, 0x00, 0x00, 0x84, 0x06, 0x00, 0x00, 
0x32, 0xf6, 0xff, 0xff, 0x04, 0x00, 0x00, 0x00, 0xa0, 0x00, 0x00, 0x00, 
0xfd, 0x7f, 0x0e, 0xc9, 0xa3, 0x2b, 0x81, 0xa7, 0x81, 0xec, 0xa3, 0xf3, 
0x7e, 0x7f, 0x14, 0x48, 0x8a, 0x17, 0x81, 0x77, 0x7f, 0xec, 0x17, 0xf3, 
0x46, 0xbf, 0x73, 0x7f, 0x21, 0x89, 0x7f, 0xf2, 0xab, 0x03, 0x81, 0x91, 
0xfc, 0x54, 0x25, 0x81, 0xff, 0xff, 0xfd, 0x7f, 0x81, 0x9b, 0xb1, 0x9e, 
0x81, 0x17, 0xc7, 0xec, 0x52, 0x7f, 0x3c, 0x2e, 0x2c, 0xa1, 0x7f, 0xe2, 
0x7f, 0xc6, 0xd4, 0x2f, 0x06, 0x7f, 0xc3, 0xf4, 0xe0, 0xeb, 0xfc, 0x7f, 
0x83, 0x81, 0x93, 0xa7, 0xf7, 0xc2, 0x62, 0x7f, 0x7f, 0x35, 0xd1, 0x12, 
0x69, 0xfd, 0x8b, 0x7f, 0xd1, 0x7f, 0x58, 0xe2, 0x81, 0x0c, 0xa8, 0x69, 
0x0a, 0x66, 0x7f, 0xe5, 0x11, 0xb1, 0x7f, 0x30, 0x7f, 0xff, 0xd1, 0xc6, 
0x54, 0x1f, 0x7f, 0xc9, 0x30, 0xfe, 0x81, 0x1a, 0x19, 0x45, 0x81, 0x06, 
0x7f, 0xe6, 0xf0, 0xd3, 0x7f, 0x1d, 0x06, 0x16, 0x5c, 0x81, 0x60, 0x35, 
0x3f, 0x20, 0xfb, 0x7f, 0x6b, 0xcb, 0x13, 0x81, 0x7f, 0x0e, 0x40, 0x42, 
0x7f, 0x3a, 0x08, 0x6e, 0x1f, 0x08, 0x7f, 0x1e, 0x67, 0xfb, 0x68, 0x7f, 
0x8e, 0x7f, 0xc2, 0x40, 0xde, 0xf6, 0xff, 0xff, 0x04, 0x00, 0x00, 0x00, 
0xa0, 0x00, 0x00, 0x00, 0xf3, 0xfc, 0xff, 0xff, 0x22, 0x00, 0x00, 0x00, 
0x00, 0x00, 0x00, 0x00, 0xaa, 0xfe, 0xff, 0xff, 0x06, 0xfc, 0xff, 0xff, 
0x57, 0x00, 0x00, 0x00, 0x3b, 0x06, 0x00, 0x00, 0x62, 0x00, 0x00, 0x00, 
0x81, 0xff, 0xff, 0xff, 0xda, 0x02, 0x00, 0x00, 0xbf, 0x02, 0x00, 0x00, 
0x00, 0x00, 0x00, 0x00, 0x7b, 0xfc, 0xff, 0xff, 0x22, 0xf7, 0xff, 0xff, 
0x2f, 0x03, 0x00, 0x00, 0xa1, 0xfc, 0xff, 0xff, 0xc1, 0x00, 0x00, 0x00, 
0xc4, 0x05, 0x00, 0x00, 0x00, 0x00, 0x00, 0x00, 0xc2, 0x04, 0x00, 0x00, 
0xc6, 0x00, 0x00, 0x00, 0x82, 0x00, 0x00, 0x00, 0xe7, 0x00, 0x00, 0x00, 
0xa0, 0xff, 0xff, 0xff, 0xe7, 0xfa, 0xff, 0xff, 0x37, 0x03, 0x00, 0x00, 
0xf4, 0xfb, 0xff, 0xff, 0x1b, 0xf7, 0xff, 0xff, 0x4b, 0xf8, 0xff, 0xff, 
0xca, 0x02, 0x00, 0x00, 0x72, 0x04, 0x00, 0x00, 0xea, 0x02, 0x00, 0x00, 
0xd4, 0x03, 0x00, 0x00, 0x41, 0x01, 0x00, 0x00, 0xe0, 0x01, 0x00, 0x00, 
0xd2, 0xfd, 0xff, 0xff, 0xd2, 0xf5, 0xff, 0xff, 0x40, 0xf4, 0xff, 0xff, 
0x57, 0x0c, 0x00, 0x00, 0xab, 0x02, 0x00, 0x00, 0x8a, 0xf7, 0xff, 0xff, 
0x04, 0x00, 0x00, 0x00, 0x80, 0x01, 0x00, 0x00, 0x22, 0xeb, 0x20, 0xc7, 
0x13, 0xb2, 0x54, 0xe1, 0x0e, 0x33, 0xe8, 0xcd, 0xe9, 0xd2, 0x7f, 0xd9, 
0x0b, 0x3b, 0xd7, 0xa4, 0xf9, 0x23, 0x4d, 0xdd, 0xf0, 0x3f, 0xea, 0x8d, 
0x32, 0x25, 0xe8, 0x58, 0x11, 0xea, 0xe6, 0x30, 0xfb, 0x51, 0xf7, 0x56, 
0x25, 0xdd, 0x61, 0x1a, 0x2d, 0x36, 0xe9, 0x7f, 0xb8, 0xc5, 0xc3, 0xdc, 
0xd9, 0xf8, 0x0a, 0xe1, 0xe4, 0xe8, 0x63, 0xad, 0xe3, 0xd8, 0xd3, 0xff, 
0xf1, 0x31, 0x27, 0x5b, 0xa1, 0x81, 0x2a, 0xd4, 0xe2, 0xc2, 0xe9, 0xc1, 
0x51, 0xfc, 0x37, 0x55, 0x29, 0xdd, 0xce, 0xba, 0x22, 0x25, 0x10, 0x50, 
0xf1, 0xc9, 0xb6, 0x06, 0x1c, 0x3f, 0xe7, 0x7f, 0x2d, 0x3d, 0xa0, 0x4f, 
0xab, 0xa6, 0x1e, 0xdd, 0x81, 0xd8, 0xb5, 0x01, 0xf9, 0xfd, 0xfc, 0x29, 
0x44, 0x50, 0xc6, 0xc4, 0xdb, 0x0a, 0x47, 0xe5, 0xf2, 0x3f, 0xe3, 0x04, 
0xdf, 0xd6, 0x44, 0xd6, 0x1a, 0x7f, 0x03, 0x2e, 0xbd, 0x53, 0xed, 0xe5, 
0x4f, 0x25, 0xf6, 0x4e, 0xee, 0xc1, 0xc6, 0xee, 0x5a, 0x35, 0xe7, 0xbf, 
0xf7, 0xc9, 0x2f, 0xa9, 0x30, 0xfd, 0x44, 0x5a, 0xda, 0x0a, 0x15, 0xac, 
0x81, 0xa9, 0xef, 0xbc, 0xfa, 0xeb, 0xdc, 0x0f, 0xae, 0x36, 0x81, 0xb2, 
0xf2, 0xcb, 0x1d, 0xb2, 0x2e, 0x08, 0x4e, 0x51, 0xaf, 0x21, 0x55, 0x37, 
0x35, 0xe8, 0x5d, 0x3b, 0x04, 0x2f, 0xff, 0xe6, 0x5d, 0x16, 0x1d, 0x07, 
0xdf, 0x47, 0x0a, 0x21, 0x7f, 0x5a, 0x05, 0x2f, 0xb7, 0xf4, 0x07, 0xea, 
0x00, 0x09, 0x9a, 0x2e, 0x1e, 0x53, 0xd6, 0xeb, 0x50, 0x52, 0x10, 0xf4, 
0xc5, 0xe8, 0x2b, 0x81, 0x51, 0xd6, 0xd8, 0xf5, 0xd0, 0x9e, 0xb1, 0xb7, 
0xe6, 0x1a, 0x28, 0xa7, 0xc1, 0x41, 0xb5, 0xb0, 0x28, 0x2c, 0xe8, 0x38, 
0xe9, 0x7f, 0xd6, 0xd4, 0xcf, 0x04, 0x0d, 0xd6, 0xe7, 0xd9, 0xc0, 0x10, 
0x22, 0x44, 0x5a, 0x53, 0xdb, 0x26, 0xe6, 0xf6, 0xb2, 0xc5, 0xda, 0x20, 
0x51, 0x18, 0x5b, 0x74, 0x0c, 0xc5, 0x0d, 0x10, 0xfb, 0x69, 0x00, 0x7f, 
0x30, 0xd1, 0x19, 0x14, 0x6e, 0xdd, 0x88, 0x3e, 0xd8, 0x19, 0x20, 0x67, 
0xeb, 0xd1, 0x15, 0xd1, 0x59, 0x4b, 0x75, 0x2a, 0xd6, 0x30, 0xc5, 0xde, 
0x4c, 0x02, 0x7f, 0x28, 0xc6, 0xcd, 0xe4, 0x46, 0xb0, 0x0e, 0x08, 0xc5, 
0xcc, 0xe2, 0xfd, 0x19, 0xbb, 0x37, 0x81, 0x17, 0x2b, 0x35, 0xf9, 0xfc, 
0xea, 0x03, 0x43, 0x32, 0xb1, 0x9b, 0xa6, 0xc8, 0xbf, 0xc2, 0x6e, 0xe3, 
0xe9, 0x0c, 0xa4, 0xb8, 0x3e, 0xea, 0xec, 0x81, 0xad, 0xef, 0xa7, 0xdb, 
0x0c, 0x08, 0x6e, 0x14, 0x15, 0xc7, 0x2d, 0xe2, 0xd3, 0x5d, 0xea, 0x0a, 
0xe1, 0x27, 0xa4, 0x09, 0xd7, 0x07, 0x07, 0xf9, 0x12, 0x1f, 0xee, 0x0b, 
0x26, 0x3f, 0x81, 0x19, 0xde, 0x02, 0x09, 0xf6, 0x16, 0xf9, 0xff, 0xff, 
0x04, 0x00, 0x00, 0x00, 0x40, 0x00, 0x00, 0x00, 0xe8, 0x0d, 0x00, 0x00, 
0x78, 0xf5, 0xff, 0xff, 0x1e, 0x01, 0x00, 0x00, 0x36, 0x0f, 0x00, 0x00, 
0x2d, 0x04, 0x00, 0x00, 0xf0, 0x05, 0x00, 0x00, 0xcd, 0x04, 0x00, 0x00, 
0x01, 0xf6, 0xff, 0xff, 0xbe, 0xfc, 0xff, 0xff, 0x3c, 0x07, 0x00, 0x00, 
0x67, 0xfc, 0xff, 0xff, 0xa4, 0x03, 0x00, 0x00, 0x20, 0x01, 0x00, 0x00, 
0x26, 0xfa, 0xff, 0xff, 0x68, 0x04, 0x00, 0x00, 0x5c, 0xfb, 0xff, 0xff, 
0x62, 0xf9, 0xff, 0xff, 0x04, 0x00, 0x00, 0x00, 0x60, 0x00, 0x00, 0x00, 
0x4b, 0xfc, 0x09, 0x08, 0x00, 0x14, 0x1f, 0xe3, 0xe2, 0x33, 0xe1, 0x00, 
0xf0, 0xf4, 0x25, 0xe0, 0x7f, 0xa0, 0x09, 0x40, 0x23, 0xe1, 0x19, 0x0c, 
0xc8, 0x44, 0xcc, 0xf5, 0xff, 0xdc, 0x30, 0xc3, 0x44, 0xf0, 0x00, 0x2c, 
0x21, 0x1e, 0x20, 0xe9, 0xd7, 0x11, 0xd9, 0xe7, 0xe3, 0xd2, 0x26, 0xc2, 
0x06, 0x37, 0xd9, 0x1e, 0xe7, 0x09, 0xcf, 0xe0, 0x17, 0xde, 0xba, 0x38, 
0xd6, 0x07, 0xaa, 0xfa, 0x23, 0x36, 0xb9, 0x7f, 0x0f, 0xcd, 0xc5, 0xe0, 
0xdb, 0xd0, 0xdf, 0x47, 0xa8, 0x45, 0xb0, 0xe4, 0x3f, 0xfd, 0xf2, 0x56, 
0xde, 0x17, 0xdb, 0x2e, 0xcd, 0xd7, 0xf0, 0x1b, 0xdf, 0x17, 0xda, 0xe1, 
0xce, 0xf9, 0xff, 0xff, 0x04, 0x00, 0x00, 0x00, 0x08, 0x00, 0x00, 0x00, 
0xd5, 0x0a, 0x00, 0x00, 0x87, 0x05, 0x00, 0x00, 0xe2, 0xf9, 0xff, 0xff, 
0x04, 0x00, 0x00, 0x00, 0x0c, 0x00, 0x00, 0x00, 0xff, 0xff, 0xff, 0xff, 
0x1e, 0x00, 0x00, 0x00, 0x02, 0x00, 0x00, 0x00, 0xfa, 0xf9, 0xff, 0xff, 
0x04, 0x00, 0x00, 0x00, 0x08, 0x00, 0x00, 0x00, 0x1e, 0x00, 0x00, 0x00, 
0x02, 0x00, 0x00, 0x00, 0x0e, 0xfa, 0xff, 0xff, 0x04, 0x00, 0x00, 0x00, 
0x08, 0x00, 0x00, 0x00, 0x0f, 0x00, 0x00, 0x00, 0x10, 0x00, 0x00, 0x00, 
0x22, 0xfa, 0xff, 0xff, 0x04, 0x00, 0x00, 0x00, 0x04, 0x00, 0x00, 0x00, 
0x08, 0x00, 0x00, 0x00, 0x32, 0xfa, 0xff, 0xff, 0x04, 0x00, 0x00, 0x00, 
0x04, 0x00, 0x00, 0x00, 0x05, 0x00, 0x00, 0x00, 0x42, 0xfa, 0xff, 0xff, 
0x04, 0x00, 0x00, 0x00, 0x04, 0x00, 0x00, 0x00, 0x28, 0x00, 0x00, 0x00, 
0x40, 0xcb, 0xff, 0xff, 0x56, 0xfa, 0xff, 0xff, 0x04, 0x00, 0x00, 0x00, 
0x04, 0x00, 0x00, 0x00, 0x00, 0x00, 0x00, 0x00, 0x66, 0xfa, 0xff, 0xff, 
0x04, 0x00, 0x00, 0x00, 0x0c, 0x00, 0x00, 0x00, 0xff, 0xff, 0xff, 0xff, 
0x05, 0x00, 0x00, 0x00, 0x08, 0x00, 0x00, 0x00, 0x7e, 0xfa, 0xff, 0xff, 
0x04, 0x00, 0x00, 0x00, 0x0c, 0x00, 0x00, 0x00, 0xff, 0xff, 0xff, 0xff, 
0x0f, 0x00, 0x00, 0x00, 0x08, 0x00, 0x00, 0x00, 0x96, 0xfa, 0xff, 0xff, 
0x04, 0x00, 0x00, 0x00, 0x0c, 0x00, 0x00, 0x00, 0xff, 0xff, 0xff, 0xff, 
0x0f, 0x00, 0x00, 0x00, 0x10, 0x00, 0x00, 0x00, 0xae, 0xfa, 0xff, 0xff, 
0x04, 0x00, 0x00, 0x00, 0x04, 0x00, 0x00, 0x00, 0x01, 0x00, 0x00, 0x00, 
0xbe, 0xfa, 0xff, 0xff, 0x04, 0x00, 0x00, 0x00, 0x0c, 0x00, 0x00, 0x00, 
0xff, 0xff, 0xff, 0xff, 0x1e, 0x00, 0x00, 0x00, 0x10, 0x00, 0x00, 0x00, 
0xd6, 0xfa, 0xff, 0xff, 0x04, 0x00, 0x00, 0x00, 0x04, 0x00, 0x00, 0x00, 
0xfd, 0xff, 0xff, 0xff, 0xd4, 0xcb, 0xff, 0xff, 0xd8, 0xcb, 0xff, 0xff, 
0x0f, 0x00, 0x00, 0x00, 0x4d, 0x4c, 0x49, 0x52, 0x20, 0x43, 0x6f, 0x6e, 
0x76, 0x65, 0x72, 0x74, 0x65, 0x64, 0x2e, 0x00, 0x01, 0x00, 0x00, 0x00, 
0x14, 0x00, 0x00, 0x00, 0x00, 0x00, 0x0e, 0x00, 0x18, 0x00, 0x14, 0x00, 
0x10, 0x00, 0x0c, 0x00, 0x08, 0x00, 0x04, 0x00, 0x0e, 0x00, 0x00, 0x00, 
0x14, 0x00, 0x00, 0x00, 0x1c, 0x00, 0x00, 0x00, 0x18, 0x08, 0x00, 0x00, 
0x1c, 0x08, 0x00, 0x00, 0x20, 0x08, 0x00, 0x00, 0x04, 0x00, 0x00, 0x00, 
0x6d, 0x61, 0x69, 0x6e, 0x00, 0x00, 0x00, 0x00, 0x24, 0x00, 0x00, 0x00, 
0xd0, 0x07, 0x00, 0x00, 0x70, 0x07, 0x00, 0x00, 0x38, 0x07, 0x00, 0x00, 
0xfc, 0x06, 0x00, 0x00, 0xa8, 0x06, 0x00, 0x00, 0x70, 0x06, 0x00, 0x00, 
0x40, 0x06, 0x00, 0x00, 0xfc, 0x05, 0x00, 0x00, 0xd4, 0x05, 0x00, 0x00, 
0xa4, 0x05, 0x00, 0x00, 0x60, 0x05, 0x00, 0x00, 0x38, 0x05, 0x00, 0x00, 
0xfc, 0x04, 0x00, 0x00, 0xac, 0x04, 0x00, 0x00, 0x6c, 0x04, 0x00, 0x00, 
0x44, 0x04, 0x00, 0x00, 0x08, 0x04, 0x00, 0x00, 0xcc, 0x03, 0x00, 0x00, 
0x98, 0x03, 0x00, 0x00, 0x58, 0x03, 0x00, 0x00, 0x1c, 0x03, 0x00, 0x00, 
0xf4, 0x02, 0x00, 0x00, 0xc0, 0x02, 0x00, 0x00, 0x80, 0x02, 0x00, 0x00, 
0x58, 0x02, 0x00, 0x00, 0x20, 0x02, 0x00, 0x00, 0xf0, 0x01, 0x00, 0x00, 
0xa8, 0x01, 0x00, 0x00, 0x80, 0x01, 0x00, 0x00, 0x4c, 0x01, 0x00, 0x00, 
0x0c, 0x01, 0x00, 0x00, 0xe4, 0x00, 0x00, 0x00, 0xac, 0x00, 0x00, 0x00, 
0x7c, 0x00, 0x00, 0x00, 0x2c, 0x00, 0x00, 0x00, 0x04, 0x00, 0x00, 0x00, 
0x5a, 0xf9, 0xff, 0xff, 0x0c, 0x00, 0x00, 0x00, 0x10, 0x00, 0x00, 0x00, 
0x02, 0x00, 0x00, 0x00, 0x01, 0x00, 0x00, 0x00, 0x3e, 0x00, 0x00, 0x00, 
0x02, 0x00, 0x00, 0x00, 0x3d, 0x00, 0x00, 0x00, 0x0e, 0x00, 0x00, 0x00, 
0x0a, 0xfa, 0xff, 0xff, 0x20, 0x00, 0x00, 0x00, 0x00, 0x00, 0x00, 0x31, 
0x24, 0x00, 0x00, 0x00, 0x28, 0x00, 0x00, 0x00, 0x09, 0x00, 0x00, 0x00, 
0x00, 0x00, 0x0a, 0x00, 0x0c, 0x00, 0x00, 0x00, 0x08, 0x00, 0x04, 0x00, 
0x0a, 0x00, 0x00, 0x00, 0x01, 0x00, 0x00, 0x00, 0x02, 0x00, 0x00, 0x00, 
0x01, 0x00, 0x00, 0x00, 0x3d, 0x00, 0x00, 0x00, 0x04, 0x00, 0x00, 0x00, 
0x3b, 0x00, 0x00, 0x00, 0x10, 0x00, 0x00, 0x00, 0x3c, 0x00, 0x00, 0x00, 
0x0f, 0x00, 0x00, 0x00, 0x3e, 0xf9, 0xff, 0xff, 0x10, 0x00, 0x00, 0x00, 
0x00, 0x00, 0x00, 0x34, 0x0c, 0x00, 0x00, 0x00, 0x10, 0x00, 0x00, 0x00, 
0x44, 0xcd, 0xff, 0xff, 0x01, 0x00, 0x00, 0x00, 0x3c, 0x00, 0x00, 0x00, 
0x02, 0x00, 0x00, 0x00, 0x37, 0x00, 0x00, 0x00, 0x03, 0x00, 0x00, 0x00, 
0xc6, 0xf9, 0xff, 0xff, 0x14, 0x00, 0x00, 0x00, 0x00, 0x00, 0x00, 0x0a, 
0x10, 0x00, 0x00, 0x00, 0x14, 0x00, 0x00, 0x00, 0x08, 0x00, 0x00, 0x00, 
0x74, 0xcd, 0xff, 0xff, 0x01, 0x00, 0x00, 0x00, 0x3b, 0x00, 0x00, 0x00, 
0x03, 0x00, 0x00, 0x00, 0x3a, 0x00, 0x00, 0x00, 0x08, 0x00, 0x00, 0x00, 
0x0d, 0x00, 0x00, 0x00, 0x2a, 0xfa, 0xff, 0xff, 0x0c, 0x00, 0x00, 0x00, 
0x10, 0x00, 0x00, 0x00, 0x02, 0x00, 0x00, 0x00, 0x01, 0x00, 0x00, 0x00, 
0x3a, 0x00, 0x00, 0x00, 0x02, 0x00, 0x00, 0x00, 0x39, 0x00, 0x00, 0x00, 
0x08, 0x00, 0x00, 0x00, 0x1e, 0xfa, 0xff, 0xff, 0x14, 0x00, 0x00, 0x00, 
0x00, 0x00, 0x00, 0x20, 0x14, 0x00, 0x00, 0x00, 0x18, 0x00, 0x00, 0x00, 
0x05, 0x00, 0x00, 0x00, 0xa2, 0xfc, 0xff, 0xff, 0x01, 0x00, 0x00, 0x00, 
0x01, 0x00, 0x00, 0x00, 0x39, 0x00, 0x00, 0x00, 0x04, 0x00, 0x00, 0x00, 
0x38, 0x00, 0x00, 0x00, 0x07, 0x00, 0x00, 0x00, 0x08, 0x00, 0x00, 0x00, 
0x08, 0x00, 0x00, 0x00, 0x5a, 0xfa, 0xff, 0xff, 0x14, 0x00, 0x00, 0x00, 
0x00, 0x00, 0x00, 0x37, 0x14, 0x00, 0x00, 0x00, 0x18, 0x00, 0x00, 0x00, 
0x04, 0x00, 0x00, 0x00, 0x92, 0xfc, 0xff, 0xff, 0x00, 0x00, 0x00, 0x02, 
0x01, 0x00, 0x00, 0x00, 0x38, 0x00, 0x00, 0x00, 0x01, 0x00, 0x00, 0x00, 
0x37, 0x00, 0x00, 0x00, 0xba, 0xfa, 0xff, 0xff, 0x0c, 0x00, 0x00, 0x00, 
0x10, 0x00, 0x00, 0x00, 0x02, 0x00, 0x00, 0x00, 0x01, 0x00, 0x00, 0x00, 
0x37, 0x00, 0x00, 0x00, 0x02, 0x00, 0x00, 0x00, 0x36, 0x00, 0x00, 0x00, 
0x04, 0x00, 0x00, 0x00, 0xae, 0xfa, 0xff, 0xff, 0x14, 0x00, 0x00, 0x00, 
0x00, 0x00, 0x00, 0x31, 0x1c, 0x00, 0x00, 0x00, 0x20, 0x00, 0x00, 0x00, 
0x09, 0x00, 0x00, 0x00, 0xa0, 0xfa, 0xff, 0xff, 0x00, 0x00, 0x00, 0x01, 
0x01, 0x00, 0x00, 0x00, 0x03, 0x00, 0x00, 0x00, 0x01, 0x00, 0x00, 0x00, 
0x36, 0x00, 0x00, 0x00, 0x04, 0x00, 0x00, 0x00, 0x34, 0x00, 0x00, 0x00, 
0x12, 0x00, 0x00, 0x00, 0x35, 0x00, 0x00, 0x00, 0x11, 0x00, 0x00, 0x00, 
0x96, 0xfa, 0xff, 0xff, 0x10, 0x00, 0x00, 0x00, 0x00, 0x00, 0x00, 0x34, 
0x0c, 0x00, 0x00, 0x00, 0x10, 0x00, 0x00, 0x00, 0x9c, 0xce, 0xff, 0xff, 
0x01, 0x00, 0x00, 0x00, 0x35, 0x00, 0x00, 0x00, 0x02, 0x00, 0x00, 0x00, 
0x30, 0x00, 0x00, 0x00, 0x03, 0x00, 0x00, 0x00, 0x1e, 0xfb, 0xff, 0xff, 
0x14, 0x00, 0x00, 0x00, 0x00, 0x00, 0x00, 0x0a, 0x10, 0x00, 0x00, 0x00, 
0x14, 0x00, 0x00, 0x00, 0x08, 0x00, 0x00, 0x00, 0xcc, 0xce, 0xff, 0xff, 
0x01, 0x00, 0x00, 0x00, 0x34, 0x00, 0x00, 0x00, 0x03, 0x00, 0x00, 0x00, 
0x33, 0x00, 0x00, 0x00, 0x08, 0x00, 0x00, 0x00, 0x0c, 0x00, 0x00, 0x00, 
0x82, 0xfb, 0xff, 0xff, 0x0c, 0x00, 0x00, 0x00, 0x10, 0x00, 0x00, 0x00, 
0x02, 0x00, 0x00, 0x00, 0x01, 0x00, 0x00, 0x00, 0x33, 0x00, 0x00, 0x00, 
0x02, 0x00, 0x00, 0x00, 0x32, 0x00, 0x00, 0x00, 0x08, 0x00, 0x00, 0x00, 
0x76, 0xfb, 0xff, 0xff, 0x14, 0x00, 0x00, 0x00, 0x00, 0x00, 0x00, 0x20, 
0x14, 0x00, 0x00, 0x00, 0x18, 0x00, 0x00, 0x00, 0x05, 0x00, 0x00, 0x00, 
0xfa, 0xfd, 0xff, 0xff, 0x01, 0x00, 0x00, 0x00, 0x01, 0x00, 0x00, 0x00, 
0x32, 0x00, 0x00, 0x00, 0x04, 0x00, 0x00, 0x00, 0x31, 0x00, 0x00, 0x00, 
0x07, 0x00, 0x00, 0x00, 0x08, 0x00, 0x00, 0x00, 0x08, 0x00, 0x00, 0x00, 
0xb2, 0xfb, 0xff, 0xff, 0x14, 0x00, 0x00, 0x00, 0x00, 0x00, 0x00, 0x37, 
0x14, 0x00, 0x00, 0x00, 0x18, 0x00, 0x00, 0x00, 0x04, 0x00, 0x00, 0x00, 
0xea, 0xfd, 0xff, 0xff, 0x00, 0x00, 0x00, 0x02, 0x01, 0x00, 0x00, 0x00, 
0x31, 0x00, 0x00, 0x00, 0x01, 0x00, 0x00, 0x00, 0x30, 0x00, 0x00, 0x00, 
0x12, 0xfc, 0xff, 0xff, 0x0c, 0x00, 0x00, 0x00, 0x10, 0x00, 0x00, 0x00, 
0x02, 0x00, 0x00, 0x00, 0x01, 0x00, 0x00, 0x00, 0x30, 0x00, 0x00, 0x00, 
0x02, 0x00, 0x00, 0x00, 0x2c, 0x00, 0x00, 0x00, 0x2f, 0x00, 0x00, 0x00, 
0x06, 0xfc, 0xff, 0xff, 0x14, 0x00, 0x00, 0x00, 0x00, 0x00, 0x00, 0x3b, 
0x14, 0x00, 0x00, 0x00, 0x18, 0x00, 0x00, 0x00, 0x06, 0x00, 0x00, 0x00, 
0xc6, 0xfe, 0xff, 0xff, 0x03, 0x00, 0x00, 0x00, 0x01, 0x00, 0x00, 0x00, 
0x2f, 0x00, 0x00, 0x00, 0x03, 0x00, 0x00, 0x00, 0x2e, 0x00, 0x00, 0x00, 
0x0a, 0x00, 0x00, 0x00, 0x0b, 0x00, 0x00, 0x00, 0x3e, 0xfc, 0xff, 0xff, 
0x14, 0x00, 0x00, 0x00, 0x00, 0x00, 0x00, 0x20, 0x14, 0x00, 0x00, 0x00, 
0x18, 0x00, 0x00, 0x00, 0x05, 0x00, 0x00, 0x00, 0xc2, 0xfe, 0xff, 0xff, 
0x01, 0x00, 0x00, 0x00, 0x01, 0x00, 0x00, 0x00, 0x2e, 0x00, 0x00, 0x00, 
0x04, 0x00, 0x00, 0x00, 0x2d, 0x00, 0x00, 0x00, 0x07, 0x00, 0x00, 0x00, 
0x08, 0x00, 0x00, 0x00, 0x08, 0x00, 0x00, 0x00, 0x7a, 0xfc, 0xff, 0xff, 
0x14, 0x00, 0x00, 0x00, 0x00, 0x00, 0x00, 0x37, 0x14, 0x00, 0x00, 0x00, 
0x18, 0x00, 0x00, 0x00, 0x04, 0x00, 0x00, 0x00, 0xb2, 0xfe, 0xff, 0xff, 
0x00, 0x00, 0x00, 0x02, 0x01, 0x00, 0x00, 0x00, 0x2d, 0x00, 0x00, 0x00, 
0x01, 0x00, 0x00, 0x00, 0x2c, 0x00, 0x00, 0x00, 0xaa, 0xfc, 0xff, 0xff, 
0x14, 0x00, 0x00, 0x00, 0x00, 0x00, 0x00, 0x08, 0x14, 0x00, 0x00, 0x00, 
0x18, 0x00, 0x00, 0x00, 0x07, 0x00, 0x00, 0x00, 0xe2, 0xfe, 0xff, 0xff, 
0x00, 0x00, 0x00, 0x01, 0x01, 0x00, 0x00, 0x00, 0x2c, 0x00, 0x00, 0x00, 
0x03, 0x00, 0x00, 0x00, 0x2b, 0x00, 0x00, 0x00, 0x14, 0x00, 0x00, 0x00, 
0x13, 0x00, 0x00, 0x00, 0xe2, 0xfc, 0xff, 0xff, 0x14, 0x00, 0x00, 0x00, 
0x00, 0x00, 0x00, 0x08, 0x14, 0x00, 0x00, 0x00, 0x18, 0x00, 0x00, 0x00, 
0x07, 0x00, 0x00, 0x00, 0x1a, 0xff, 0xff, 0xff, 0x00, 0x00, 0x00, 0x01, 
0x01, 0x00, 0x00, 0x00, 0x2b, 0x00, 0x00, 0x00, 0x03, 0x00, 0x00, 0x00, 
0x2a, 0x00, 0x00, 0x00, 0x16, 0x00, 0x00, 0x00, 0x15, 0x00, 0x00, 0x00, 
0x4a, 0xfd, 0xff, 0xff, 0x0c, 0x00, 0x00, 0x00, 0x10, 0x00, 0x00, 0x00, 
0x02, 0x00, 0x00, 0x00, 0x01, 0x00, 0x00, 0x00, 0x2a, 0x00, 0x00, 0x00, 
0x02, 0x00, 0x00, 0x00, 0x25, 0x00, 0x00, 0x00, 0x29, 0x00, 0x00, 0x00, 
0xfa, 0xfd, 0xff, 0xff, 0x1c, 0x00, 0x00, 0x00, 0x00, 0x00, 0x00, 0x3b, 
0x1c, 0x00, 0x00, 0x00, 0x20, 0x00, 0x00, 0x00, 0x06, 0x00, 0x00, 0x00, 
0x00, 0x00, 0x06, 0x00, 0x08, 0x00, 0x04, 0x00, 0x06, 0x00, 0x00, 0x00, 
0x02, 0x00, 0x00, 0x00, 0x01, 0x00, 0x00, 0x00, 0x29, 0x00, 0x00, 0x00, 
0x02, 0x00, 0x00, 0x00, 0x28, 0x00, 0x00, 0x00, 0x09, 0x00, 0x00, 0x00, 
0x36, 0xfe, 0xff, 0xff, 0x24, 0x00, 0x00, 0x00, 0x00, 0x00, 0x00, 0x20, 
0x24, 0x00, 0x00, 0x00, 0x28, 0x00, 0x00, 0x00, 0x05, 0x00, 0x00, 0x00, 
0x00, 0x00, 0x0e, 0x00, 0x08, 0x00, 0x00, 0x00, 0x00, 0x00, 0x00, 0x00, 
0x00, 0x00, 0x04, 0x00, 0x0e, 0x00, 0x00, 0x00, 0x01, 0x00, 0x00, 0x00, 
0x01, 0x00, 0x00, 0x00, 0x28, 0x00, 0x00, 0x00, 0x04, 0x00, 0x00, 0x00, 
0x27, 0x00, 0x00, 0x00, 0x07, 0x00, 0x00, 0x00, 0x08, 0x00, 0x00, 0x00, 
0x08, 0x00, 0x00, 0x00, 0x82, 0xfe, 0xff, 0xff, 0x1c, 0x00, 0x00, 0x00, 
0x00, 0x00, 0x00, 0x37, 0x1c, 0x00, 0x00, 0x00, 0x20, 0x00, 0x00, 0x00, 
0x04, 0x00, 0x00, 0x00, 0x00, 0x00, 0x06, 0x00, 0x08, 0x00, 0x07, 0x00, 
0x06, 0x00, 0x00, 0x00, 0x00, 0x00, 0x00, 0x02, 0x01, 0x00, 0x00, 0x00, 
0x27, 0x00, 0x00, 0x00, 0x01, 0x00, 0x00, 0x00, 0x26, 0x00, 0x00, 0x00, 
0x2e, 0xfe, 0xff, 0xff, 0x0c, 0x00, 0x00, 0x00, 0x10, 0x00, 0x00, 0x00, 
0x02, 0x00, 0x00, 0x00, 0x01, 0x00, 0x00, 0x00, 0x26, 0x00, 0x00, 0x00, 
0x02, 0x00, 0x00, 0x00, 0x25, 0x00, 0x00, 0x00, 0x06, 0x00, 0x00, 0x00, 
0x22, 0xfe, 0xff, 0xff, 0x14, 0x00, 0x00, 0x00, 0x00, 0x00, 0x00, 0x05, 
0x24, 0x00, 0x00, 0x00, 0x28, 0x00, 0x00, 0x00, 0x03, 0x00, 0x00, 0x00, 
0xce, 0xfe, 0xff, 0xff, 0x01, 0x00, 0x00, 0x00, 0x03, 0x00, 0x00, 0x00, 
0x01, 0x00, 0x00, 0x00, 0x03, 0x00, 0x00, 0x00, 0x00, 0x00, 0x00, 0x01, 
0x01, 0x00, 0x00, 0x00, 0x25, 0x00, 0x00, 0x00, 0x01, 0x00, 0x00, 0x00, 
0x24, 0x00, 0x00, 0x00, 0x06, 0xfe, 0xff, 0xff, 0x10, 0x00, 0x00, 0x00, 
0x00, 0x00, 0x00, 0x34, 0x0c, 0x00, 0x00, 0x00, 0x10, 0x00, 0x00, 0x00, 
0x0c, 0xd2, 0xff, 0xff, 0x01, 0x00, 0x00, 0x00, 0x24, 0x00, 0x00, 0x00, 
0x02, 0x00, 0x00, 0x00, 0x23, 0x00, 0x00, 0x00, 0x03, 0x00, 0x00, 0x00, 
0xbe, 0xfe, 0xff, 0xff, 0x0c, 0x00, 0x00, 0x00, 0x10, 0x00, 0x00, 0x00, 
0x02, 0x00, 0x00, 0x00, 0x01, 0x00, 0x00, 0x00, 0x23, 0x00, 0x00, 0x00, 
0x02, 0x00, 0x00, 0x00, 0x22, 0x00, 0x00, 0x00, 0x05, 0x00, 0x00, 0x00, 
0xb2, 0xfe, 0xff, 0xff, 0x14, 0x00, 0x00, 0x00, 0x00, 0x00, 0x00, 0x01, 
0x1c, 0x00, 0x00, 0x00, 0x20, 0x00, 0x00, 0x00, 0x01, 0x00, 0x00, 0x00, 
0xa4, 0xfe, 0xff, 0xff, 0x00, 0x00, 0x00, 0x01, 0x01, 0x00, 0x00, 0x00, 
0x01, 0x00, 0x00, 0x00, 0x01, 0x00, 0x00, 0x00, 0x22, 0x00, 0x00, 0x00, 
0x03, 0x00, 0x00, 0x00, 0x21, 0x00, 0x00, 0x00, 0x18, 0x00, 0x00, 0x00, 
0x17, 0x00, 0x00, 0x00, 0x96, 0xfe, 0xff, 0xff, 0x10, 0x00, 0x00, 0x00, 
0x00, 0x00, 0x00, 0x34, 0x0c, 0x00, 0x00, 0x00, 0x10, 0x00, 0x00, 0x00, 
0x9c, 0xd2, 0xff, 0xff, 0x01, 0x00, 0x00, 0x00, 0x21, 0x00, 0x00, 0x00, 
0x02, 0x00, 0x00, 0x00, 0x20, 0x00, 0x00, 0x00, 0x01, 0x00, 0x00, 0x00, 
0x4e, 0xff, 0xff, 0xff, 0x0c, 0x00, 0x00, 0x00, 0x10, 0x00, 0x00, 0x00, 
0x02, 0x00, 0x00, 0x00, 0x01, 0x00, 0x00, 0x00, 0x20, 0x00, 0x00, 0x00, 
0x02, 0x00, 0x00, 0x00, 0x1f, 0x00, 0x00, 0x00, 0x04, 0x00, 0x00, 0x00, 
0x00, 0x00, 0x0e, 0x00, 0x1a, 0x00, 0x14, 0x00, 0x10, 0x00, 0x0c, 0x00, 
0x0b, 0x00, 0x04, 0x00, 0x0e, 0x00, 0x00, 0x00, 0x24, 0x00, 0x00, 0x00, 
0x00, 0x00, 0x00, 0x05, 0x34, 0x00, 0x00, 0x00, 0x38, 0x00, 0x00, 0x00, 
0x03, 0x00, 0x00, 0x00, 0x00, 0x00, 0x0e, 0x00, 0x18, 0x00, 0x17, 0x00, 
0x10, 0x00, 0x0c, 0x00, 0x08, 0x00, 0x04, 0x00, 0x0e, 0x00, 0x00, 0x00, 
0x01, 0x00, 0x00, 0x00, 0x02, 0x00, 0x00, 0x00, 0x01, 0x00, 0x00, 0x00, 
0x02, 0x00, 0x00, 0x00, 0x00, 0x00, 0x00, 0x01, 0x01, 0x00, 0x00, 0x00, 
0x1f, 0x00, 0x00, 0x00, 0x01, 0x00, 0x00, 0x00, 0x1e, 0x00, 0x00, 0x00, 
0x46, 0xff, 0xff, 0xff, 0x10, 0x00, 0x00, 0x00, 0x00, 0x00, 0x00, 0x34, 
0x0c, 0x00, 0x00, 0x00, 0x10, 0x00, 0x00, 0x00, 0x4c, 0xd3, 0xff, 0xff, 
0x01, 0x00, 0x00, 0x00, 0x1e, 0x00, 0x00, 0x00, 0x02, 0x00, 0x00, 0x00, 
0x1d, 0x00, 0x00, 0x00, 0x03, 0x00, 0x00, 0x00, 0x00, 0x00, 0x0a, 0x00, 
0x10, 0x00, 0x0c, 0x00, 0x08, 0x00, 0x04, 0x00, 0x0a, 0x00, 0x00, 0x00, 
0x0c, 0x00, 0x00, 0x00, 0x10, 0x00, 0x00, 0x00, 0x02, 0x00, 0x00, 0x00, 
0x01, 0x00, 0x00, 0x00, 0x1d, 0x00, 0x00, 0x00, 0x02, 0x00, 0x00, 0x00, 
0x1c, 0x00, 0x00, 0x00, 0x02, 0x00, 0x00, 0x00, 0x00, 0x00, 0x0e, 0x00, 
0x18, 0x00, 0x14, 0x00, 0x10, 0x00, 0x0c, 0x00, 0x0b, 0x00, 0x04, 0x00, 
0x0e, 0x00, 0x00, 0x00, 0x20, 0x00, 0x00, 0x00, 0x00, 0x00, 0x00, 0x01, 
0x28, 0x00, 0x00, 0x00, 0x2c, 0x00, 0x00, 0x00, 0x01, 0x00, 0x00, 0x00, 
0x0c, 0x00, 0x10, 0x00, 0x00, 0x00, 0x0c, 0x00, 0x08, 0x00, 0x07, 0x00, 
0x0c, 0x00, 0x00, 0x00, 0x00, 0x00, 0x00, 0x01, 0x01, 0x00, 0x00, 0x00, 
0x01, 0x00, 0x00, 0x00, 0x01, 0x00, 0x00, 0x00, 0x1c, 0x00, 0x00, 0x00, 
0x03, 0x00, 0x00, 0x00, 0x1b, 0x00, 0x00, 0x00, 0x1a, 0x00, 0x00, 0x00, 
0x19, 0x00, 0x00, 0x00, 0x00, 0x00, 0x0e, 0x00, 0x14, 0x00, 0x00, 0x00, 
0x10, 0x00, 0x0c, 0x00, 0x0b, 0x00, 0x04, 0x00, 0x0e, 0x00, 0x00, 0x00, 
0x10, 0x00, 0x00, 0x00, 0x00, 0x00, 0x00, 0x34, 0x0c, 0x00, 0x00, 0x00, 
0x10, 0x00, 0x00, 0x00, 0x14, 0xd4, 0xff, 0xff, 0x01, 0x00, 0x00, 0x00, 
0x1b, 0x00, 0x00, 0x00, 0x02, 0x00, 0x00, 0x00, 0x00, 0x00, 0x00, 0x00, 
0x01, 0x00, 0x00, 0x00, 0x01, 0x00, 0x00, 0x00, 0x3e, 0x00, 0x00, 0x00, 
0x01, 0x00, 0x00, 0x00, 0x00, 0x00, 0x00, 0x00, 0x3f, 0x00, 0x00, 0x00, 
0xf8, 0x2b, 0x00, 0x00, 0xa0, 0x2b, 0x00, 0x00, 0x28, 0x2b, 0x00, 0x00, 
0xec, 0x2a, 0x00, 0x00, 0xac, 0x2a, 0x00, 0x00, 0x4c, 0x2a, 0x00, 0x00, 
0xe8, 0x29, 0x00, 0x00, 0xa8, 0x29, 0x00, 0x00, 0x68, 0x29, 0x00, 0x00, 
0x10, 0x29, 0x00, 0x00, 0xb8, 0x28, 0x00, 0x00, 0x60, 0x28, 0x00, 0x00, 
0xec, 0x27, 0x00, 0x00, 0x78, 0x27, 0x00, 0x00, 0x0c, 0x27, 0x00, 0x00, 
0xec, 0x25, 0x00, 0x00, 0x50, 0x25, 0x00, 0x00, 0x5c, 0x23, 0x00, 0x00, 
0x18, 0x22, 0x00, 0x00, 0xb4, 0x1f, 0x00, 0x00, 0x70, 0x1d, 0x00, 0x00, 
0xbc, 0x1c, 0x00, 0x00, 0x28, 0x1c, 0x00, 0x00, 0xcc, 0x1a, 0x00, 0x00, 
0xf8, 0x19, 0x00, 0x00, 0x3c, 0x18, 0x00, 0x00, 0x08, 0x17, 0x00, 0x00, 
0x64, 0x16, 0x00, 0x00, 0x38, 0x15, 0x00, 0x00, 0x38, 0x14, 0x00, 0x00, 
0x90, 0x13, 0x00, 0x00, 0xf4, 0x12, 0x00, 0x00, 0x54, 0x12, 0x00, 0x00, 
0xac, 0x11, 0x00, 0x00, 0x80, 0x10, 0x00, 0x00, 0x80, 0x0f, 0x00, 0x00, 
0xd8, 0x0e, 0x00, 0x00, 0x3c, 0x0e, 0x00, 0x00, 0x9c, 0x0d, 0x00, 0x00, 
0x48, 0x0d, 0x00, 0x00, 0xf0, 0x0c, 0x00, 0x00, 0x94, 0x0c, 0x00, 0x00, 
0x10, 0x0c, 0x00, 0x00, 0x4c, 0x0b, 0x00, 0x00, 0x88, 0x0a, 0x00, 0x00, 
0x34, 0x0a, 0x00, 0x00, 0xdc, 0x09, 0x00, 0x00, 0x80, 0x09, 0x00, 0x00, 
0xf4, 0x08, 0x00, 0x00, 0x98, 0x08, 0x00, 0x00, 0x38, 0x08, 0x00, 0x00, 
0xc4, 0x07, 0x00, 0x00, 0x58, 0x07, 0x00, 0x00, 0xa4, 0x06, 0x00, 0x00, 
0x40, 0x05, 0x00, 0x00, 0x18, 0x04, 0x00, 0x00, 0xbc, 0x03, 0x00, 0x00, 
0x5c, 0x03, 0x00, 0x00, 0xe8, 0x02, 0x00, 0x00, 0x7c, 0x02, 0x00, 0x00, 
0xc8, 0x01, 0x00, 0x00, 0x8c, 0x00, 0x00, 0x00, 0x04, 0x00, 0x00, 0x00, 
0x1a, 0xd5, 0xff, 0xff, 0x00, 0x00, 0x00, 0x01, 0x18, 0x00, 0x00, 0x00, 
0x24, 0x00, 0x00, 0x00, 0x44, 0x00, 0x00, 0x00, 0x3f, 0x00, 0x00, 0x00, 
0x00, 0x00, 0x00, 0x09, 0x58, 0x00, 0x00, 0x00, 0x03, 0x00, 0x00, 0x00, 
0xff, 0xff, 0xff, 0xff, 0x1e, 0x00, 0x00, 0x00, 0x02, 0x00, 0x00, 0x00, 
0x04, 0xd5, 0xff, 0xff, 0x08, 0x00, 0x00, 0x00, 0x14, 0x00, 0x00, 0x00, 
0x01, 0x00, 0x00, 0x00, 0x10, 0x00, 0x00, 0x00, 0x00, 0x00, 0x00, 0x00, 
0x00, 0x00, 0x00, 0x00, 0x01, 0x00, 0x00, 0x00, 0x9f, 0x0a, 0x98, 0x3c, 
0x1b, 0x00, 0x00, 0x00, 0x53, 0x74, 0x61, 0x74, 0x65, 0x66, 0x75, 0x6c, 
0x50, 0x61, 0x72, 0x74, 0x69, 0x74, 0x69, 0x6f, 0x6e, 0x65, 0x64, 0x43, 
0x61, 0x6c, 0x6c, 0x5f, 0x31, 0x3a, 0x30, 0x00, 0x03, 0x00, 0x00, 0x00, 
0x01, 0x00, 0x00, 0x00, 0x1e, 0x00, 0x00, 0x00, 0x02, 0x00, 0x00, 0x00, 
0x9e, 0xd5, 0xff, 0xff, 0x00, 0x00, 0x00, 0x01, 0x18, 0x00, 0x00, 0x00, 
0x28, 0x00, 0x00, 0x00, 0x48, 0x00, 0x00, 0x00, 0x3e, 0x00, 0x00, 0x00, 
0x00, 0x00, 0x00, 0x09, 0x08, 0x01, 0x00, 0x00, 0x04, 0x00, 0x00, 0x00, 
0xff, 0xff, 0xff, 0xff, 0x01, 0x00, 0x00, 0x00, 0x1e, 0x00, 0x00, 0x00, 
0x02, 0x00, 0x00, 0x00, 0x8c, 0xd5, 0xff, 0xff, 0x08, 0x00, 0x00, 0x00, 
0x14, 0x00, 0x00, 0x00, 0x01, 0x00, 0x00, 0x00, 0x10, 0x00, 0x00, 0x00, 
0x00, 0x00, 0x00, 0x00, 0x00, 0x00, 0x00, 0x00, 0x01, 0x00, 0x00, 0x00, 
0x9f, 0x0a, 0x98, 0x3c, 0xc6, 0x00, 0x00, 0x00, 0x73, 0x65, 0x71, 0x75, 
0x65, 0x6e, 0x74, 0x69, 0x61, 0x6c, 0x5f, 0x31, 0x5f, 0x31, 0x2f, 0x63, 
0x6f, 0x6e, 0x76, 0x31, 0x64, 0x5f, 0x74, 0x72, 0x61, 0x6e, 0x73, 0x70, 
0x6f, 0x73, 0x65, 0x5f, 0x32, 0x5f, 0x31, 0x2f, 0x42, 0x69, 0x61, 0x73, 
0x41, 0x64, 0x64, 0x3b, 0x73, 0x65, 0x71, 0x75, 0x65, 0x6e, 0x74, 0x69, 
0x61, 0x6c, 0x5f, 0x31, 0x5f, 0x31, 0x2f, 0x63, 0x6f, 0x6e, 0x76, 0x31, 
0x64, 0x5f, 0x74, 0x72, 0x61, 0x6e, 0x73, 0x70, 0x6f, 0x73, 0x65, 0x5f, 
0x32, 0x5f, 0x31, 0x2f, 0x63, 0x6f, 0x6e, 0x76, 0x5f, 0x74, 0x72, 0x61, 
0x6e, 0x73, 0x70, 0x6f, 0x73, 0x65, 0x2f, 0x53, 0x71, 0x75, 0x65, 0x65, 
0x7a, 0x65, 0x3b, 0x73, 0x65, 0x71, 0x75, 0x65, 0x6e, 0x74, 0x69, 0x61, 
0x6c, 0x5f, 0x31, 0x5f, 0x31, 0x2f, 0x63, 0x6f, 0x6e, 0x76, 0x31, 0x64, 
0x5f, 0x74, 0x72, 0x61, 0x6e, 0x73, 0x70, 0x6f, 0x73, 0x65, 0x5f, 0x32, 
0x5f, 0x31, 0x2f, 0x53, 0x71, 0x75, 0x65, 0x65, 0x7a, 0x65, 0x3b, 0x73, 
0x65, 0x71, 0x75, 0x65, 0x6e, 0x74, 0x69, 0x61, 0x6c, 0x5f, 0x31, 0x5f, 
0x31, 0x2f, 0x63, 0x6f, 0x6e, 0x76, 0x31, 0x64, 0x5f, 0x74, 0x72, 0x61, 
0x6e, 0x73, 0x70, 0x6f, 0x73, 0x65, 0x5f, 0x32, 0x5f, 0x31, 0x2f, 0x63, 
0x6f, 0x6e, 0x76, 0x5f, 0x74, 0x72, 0x61, 0x6e, 0x73, 0x70, 0x6f, 0x73, 
0x65, 0x31, 0x00, 0x00, 0x04, 0x00, 0x00, 0x00, 0x01, 0x00, 0x00, 0x00, 
0x01, 0x00, 0x00, 0x00, 0x1e, 0x00, 0x00, 0x00, 0x02, 0x00, 0x00, 0x00, 
0xd6, 0xd6, 0xff, 0xff, 0x00, 0x00, 0x00, 0x01, 0x18, 0x00, 0x00, 0x00, 
0x28, 0x00, 0x00, 0x00, 0x48, 0x00, 0x00, 0x00, 0x3d, 0x00, 0x00, 0x00, 
0x00, 0x00, 0x00, 0x09, 0x80, 0x00, 0x00, 0x00, 0x04, 0x00, 0x00, 0x00, 
0xff, 0xff, 0xff, 0xff, 0x01, 0x00, 0x00, 0x00, 0x0f, 0x00, 0x00, 0x00, 
0x10, 0x00, 0x00, 0x00, 0xc4, 0xd6, 0xff, 0xff, 0x08, 0x00, 0x00, 0x00, 
0x14, 0x00, 0x00, 0x00, 0x01, 0x00, 0x00, 0x00, 0x80, 0xff, 0xff, 0xff, 
0xff, 0xff, 0xff, 0xff, 0x00, 0x00, 0x00, 0x00, 0x01, 0x00, 0x00, 0x00, 
0xc0, 0x48, 0x89, 0x3c, 0x3d, 0x00, 0x00, 0x00, 0x73, 0x65, 0x71, 0x75, 
0x65, 0x6e, 0x74, 0x69, 0x61, 0x6c, 0x5f, 0x31, 0x5f, 0x31, 0x2f, 0x63, 
0x6f, 0x6e, 0x76, 0x31, 0x64, 0x5f, 0x74, 0x72, 0x61, 0x6e, 0x73, 0x70, 
0x6f, 0x73, 0x65, 0x5f, 0x32, 0x5f, 0x31, 0x2f, 0x63, 0x6f, 0x6e, 0x76, 
0x5f, 0x74, 0x72, 0x61, 0x6e, 0x73, 0x70, 0x6f, 0x73, 0x65, 0x2f, 0x45, 
0x78, 0x70, 0x61, 0x6e, 0x64, 0x44, 0x69, 0x6d, 0x73, 0x00, 0x00, 0x00, 
0x04, 0x00, 0x00, 0x00, 0x01, 0x00, 0x00, 0x00, 0x01, 0x00, 0x00, 0x00, 
0x0f, 0x00, 0x00, 0x00, 0x10, 0x00, 0x00, 0x00, 0xda, 0xd7, 0xff, 0xff, 
0x00, 0x00, 0x00, 0x01, 0x14, 0x00, 0x00, 0x00, 0x14, 0x00, 0x00, 0x00, 
0x3c, 0x00, 0x00, 0x00, 0x00, 0x00, 0x00, 0x02, 0x48, 0x00, 0x00, 0x00, 
0xc4, 0xd7, 0xff, 0xff, 0x39, 0x00, 0x00, 0x00, 0x73, 0x65, 0x71, 0x75, 
0x65, 0x6e, 0x74, 0x69, 0x61, 0x6c, 0x5f, 0x31, 0x5f, 0x31, 0x2f, 0x63, 
0x6f, 0x6e, 0x76, 0x31, 0x64, 0x5f, 0x74, 0x72, 0x61, 0x6e, 0x73, 0x70, 
0x6f, 0x73, 0x65, 0x5f, 0x32, 0x5f, 0x31, 0x2f, 0x63, 0x6f, 0x6e, 0x76, 
0x5f, 0x74, 0x72, 0x61, 0x6e, 0x73, 0x70, 0x6f, 0x73, 0x65, 0x2f, 0x63, 
0x6f, 0x6e, 0x63, 0x61, 0x74, 0x00, 0x00, 0x00, 0x01, 0x00, 0x00, 0x00, 
0x04, 0x00, 0x00, 0x00, 0x42, 0xd8, 0xff, 0xff, 0x00, 0x00, 0x00, 0x01, 
0x14, 0x00, 0x00, 0x00, 0x14, 0x00, 0x00, 0x00, 0x3b, 0x00, 0x00, 0x00, 
0x00, 0x00, 0x00, 0x02, 0x50, 0x00, 0x00, 0x00, 0x2c, 0xd8, 0xff, 0xff, 
0x42, 0x00, 0x00, 0x00, 0x73, 0x65, 0x71, 0x75, 0x65, 0x6e, 0x74, 0x69, 
0x61, 0x6c, 0x5f, 0x31, 0x5f, 0x31, 0x2f, 0x63, 0x6f, 0x6e, 0x76, 0x31, 
0x64, 0x5f, 0x74, 0x72, 0x61, 0x6e, 0x73, 0x70, 0x6f, 0x73, 0x65, 0x5f, 
0x32, 0x5f, 0x31, 0x2f, 0x63, 0x6f, 0x6e, 0x76, 0x5f, 0x74, 0x72, 0x61, 
0x6e, 0x73, 0x70, 0x6f, 0x73, 0x65, 0x2f, 0x63, 0x6f, 0x6e, 0x63, 0x61, 
0x74, 0x2f, 0x76, 0x61, 0x6c, 0x75, 0x65, 0x73, 0x5f, 0x30, 0x00, 0x00, 
0x01, 0x00, 0x00, 0x00, 0x01, 0x00, 0x00, 0x00, 0xb2, 0xd8, 0xff, 0xff, 
0x00, 0x00, 0x00, 0x01, 0x14, 0x00, 0x00, 0x00, 0x14, 0x00, 0x00, 0x00, 
0x3a, 0x00, 0x00, 0x00, 0x00, 0x00, 0x00, 0x02, 0x40, 0x00, 0x00, 0x00, 
0x9c, 0xd8, 0xff, 0xff, 0x31, 0x00, 0x00, 0x00, 0x73, 0x65, 0x71, 0x75, 
0x65, 0x6e, 0x74, 0x69, 0x61, 0x6c, 0x5f, 0x31, 0x5f, 0x31, 0x2f, 0x63, 
0x6f, 0x6e, 0x76, 0x31, 0x64, 0x5f, 0x74, 0x72, 0x61, 0x6e, 0x73, 0x70, 
0x6f, 0x73, 0x65, 0x5f, 0x32, 0x5f, 0x31, 0x2f, 0x73, 0x74, 0x72, 0x69, 
0x64, 0x65, 0x64, 0x5f, 0x73, 0x6c, 0x69, 0x63, 0x65, 0x00, 0x00, 0x00, 
0x00, 0x00, 0x00, 0x00, 0x0e, 0xd9, 0xff, 0xff, 0x00, 0x00, 0x00, 0x01, 
0x14, 0x00, 0x00, 0x00, 0x14, 0x00, 0x00, 0x00, 0x39, 0x00, 0x00, 0x00, 
0x00, 0x00, 0x00, 0x02, 0x38, 0x00, 0x00, 0x00, 0xf8, 0xd8, 0xff, 0xff, 
0x29, 0x00, 0x00, 0x00, 0x73, 0x65, 0x71, 0x75, 0x65, 0x6e, 0x74, 0x69, 
0x61, 0x6c, 0x5f, 0x31, 0x5f, 0x31, 0x2f, 0x63, 0x6f, 0x6e, 0x76, 0x31, 
0x64, 0x5f, 0x74, 0x72, 0x61, 0x6e, 0x73, 0x70, 0x6f, 0x73, 0x65, 0x5f, 
0x32, 0x5f, 0x31, 0x2f, 0x53, 0x68, 0x61, 0x70, 0x65, 0x00, 0x00, 0x00, 
0x01, 0x00, 0x00, 0x00, 0x03, 0x00, 0x00, 0x00, 0x12, 0xd9, 0xff, 0xff, 
0x00, 0x00, 0x00, 0x01, 0x18, 0x00, 0x00, 0x00, 0x24, 0x00, 0x00, 0x00, 
0x44, 0x00, 0x00, 0x00, 0x38, 0x00, 0x00, 0x00, 0x00, 0x00, 0x00, 0x09, 
0xf8, 0x00, 0x00, 0x00, 0x03, 0x00, 0x00, 0x00, 0xff, 0xff, 0xff, 0xff, 
0x0f, 0x00, 0x00, 0x00, 0x10, 0x00, 0x00, 0x00, 0xfc, 0xd8, 0xff, 0xff, 
0x08, 0x00, 0x00, 0x00, 0x14, 0x00, 0x00, 0x00, 0x01, 0x00, 0x00, 0x00, 
0x80, 0xff, 0xff, 0xff, 0xff, 0xff, 0xff, 0xff, 0x00, 0x00, 0x00, 0x00, 
0x01, 0x00, 0x00, 0x00, 0xc0, 0x48, 0x89, 0x3c, 0xbb, 0x00, 0x00, 0x00, 
0x73, 0x65, 0x71, 0x75, 0x65, 0x6e, 0x74, 0x69, 0x61, 0x6c, 0x5f, 0x31, 
0x5f, 0x31, 0x2f, 0x63, 0x6f, 0x6e, 0x76, 0x31, 0x64, 0x5f, 0x74, 0x72, 
0x61, 0x6e, 0x73, 0x70, 0x6f, 0x73, 0x65, 0x5f, 0x31, 0x5f, 0x31, 0x2f, 
0x52, 0x65, 0x6c, 0x75, 0x3b, 0x73, 0x65, 0x71, 0x75, 0x65, 0x6e, 0x74, 
0x69, 0x61, 0x6c, 0x5f, 0x31, 0x5f, 0x31, 0x2f, 0x63, 0x6f, 0x6e, 0x76, 
0x31, 0x64, 0x5f, 0x74, 0x72, 0x61, 0x6e, 0x73, 0x70, 0x6f, 0x73, 0x65, 
0x5f, 0x31, 0x5f, 0x31, 0x2f, 0x42, 0x69, 0x61, 0x73, 0x41, 0x64, 0x64, 
0x3b, 0x73, 0x65, 0x71, 0x75, 0x65, 0x6e, 0x74, 0x69, 0x61, 0x6c, 0x5f, 
0x31, 0x5f, 0x31, 0x2f, 0x63, 0x6f, 0x6e, 0x76, 0x31, 0x64, 0x5f, 0x74, 
0x72, 0x61, 0x6e, 0x73, 0x70, 0x6f, 0x73, 0x65, 0x5f, 0x31, 0x5f, 0x31, 
0x2f, 0x63, 0x6f, 0x6e, 0x76, 0x5f, 0x74, 0x72, 0x61, 0x6e, 0x73, 0x70, 
0x6f, 0x73, 0x65, 0x2f, 0x53, 0x71, 0x75, 0x65, 0x65, 0x7a, 0x65, 0x3b, 
0x73, 0x65, 0x71, 0x75, 0x65, 0x6e, 0x74, 0x69, 0x61, 0x6c, 0x5f, 0x31, 
0x5f, 0x31, 0x2f, 0x63, 0x6f, 0x6e, 0x76, 0x31, 0x64, 0x5f, 0x74, 0x72, 
0x61, 0x6e, 0x73, 0x70, 0x6f, 0x73, 0x65, 0x5f, 0x31, 0x5f, 0x31, 0x2f, 
0x53, 0x71, 0x75, 0x65, 0x65, 0x7a, 0x65, 0x00, 0x03, 0x00, 0x00, 0x00, 
0x01, 0x00, 0x00, 0x00, 0x0f, 0x00, 0x00, 0x00, 0x10, 0x00, 0x00, 0x00, 
0x36, 0xda, 0xff, 0xff, 0x00, 0x00, 0x00, 0x01, 0x18, 0x00, 0x00, 0x00, 
0x28, 0x00, 0x00, 0x00, 0x48, 0x00, 0x00, 0x00, 0x37, 0x00, 0x00, 0x00, 
0x00, 0x00, 0x00, 0x09, 0x30, 0x01, 0x00, 0x00, 0x04, 0x00, 0x00, 0x00, 
0xff, 0xff, 0xff, 0xff, 0x01, 0x00, 0x00, 0x00, 0x0f, 0x00, 0x00, 0x00, 
0x10, 0x00, 0x00, 0x00, 0x24, 0xda, 0xff, 0xff, 0x08, 0x00, 0x00, 0x00, 
0x14, 0x00, 0x00, 0x00, 0x01, 0x00, 0x00, 0x00, 0x80, 0xff, 0xff, 0xff, 
0xff, 0xff, 0xff, 0xff, 0x00, 0x00, 0x00, 0x00, 0x01, 0x00, 0x00, 0x00, 
0xc0, 0x48, 0x89, 0x3c, 0xef, 0x00, 0x00, 0x00, 0x73, 0x65, 0x71, 0x75, 
0x65, 0x6e, 0x74, 0x69, 0x61, 0x6c, 0x5f, 0x31, 0x5f, 0x31, 0x2f, 0x63, 
0x6f, 0x6e, 0x76, 0x31, 0x64, 0x5f, 0x74, 0x72, 0x61, 0x6e, 0x73, 0x70, 
0x6f, 0x73, 0x65, 0x5f, 0x31, 0x5f, 0x31, 0x2f, 0x52, 0x65, 0x6c, 0x75, 
0x3b, 0x73, 0x65, 0x71, 0x75, 0x65, 0x6e, 0x74, 0x69, 0x61, 0x6c, 0x5f, 
0x31, 0x5f, 0x31, 0x2f, 0x63, 0x6f, 0x6e, 0x76, 0x31, 0x64, 0x5f, 0x74, 
0x72, 0x61, 0x6e, 0x73, 0x70, 0x6f, 0x73, 0x65, 0x5f, 0x31, 0x5f, 0x31, 
0x2f, 0x42, 0x69, 0x61, 0x73, 0x41, 0x64, 0x64, 0x3b, 0x73, 0x65, 0x71, 
0x75, 0x65, 0x6e, 0x74, 0x69, 0x61, 0x6c, 0x5f, 0x31, 0x5f, 0x31, 0x2f, 
0x63, 0x6f, 0x6e, 0x76, 0x31, 0x64, 0x5f, 0x74, 0x72, 0x61, 0x6e, 0x73, 
0x70, 0x6f, 0x73, 0x65, 0x5f, 0x31, 0x5f, 0x31, 0x2f, 0x63, 0x6f, 0x6e, 
0x76, 0x5f, 0x74, 0x72, 0x61, 0x6e, 0x73, 0x70, 0x6f, 0x73, 0x65, 0x2f, 
0x53, 0x71, 0x75, 0x65, 0x65, 0x7a, 0x65, 0x3b, 0x73, 0x65, 0x71, 0x75, 
0x65, 0x6e, 0x74, 0x69, 0x61, 0x6c, 0x5f, 0x31, 0x5f, 0x31, 0x2f, 0x63, 
0x6f, 0x6e, 0x76, 0x31, 0x64, 0x5f, 0x74, 0x72, 0x61, 0x6e, 0x73, 0x70, 
0x6f, 0x73, 0x65, 0x5f, 0x31, 0x5f, 0x31, 0x2f, 0x53, 0x71, 0x75, 0x65, 
0x65, 0x7a, 0x65, 0x3b, 0x73, 0x65, 0x71, 0x75, 0x65, 0x6e, 0x74, 0x69, 
0x61, 0x6c, 0x5f, 0x31, 0x5f, 0x31, 0x2f, 0x63, 0x6f, 0x6e, 0x76, 0x31, 
0x64, 0x5f, 0x74, 0x72, 0x61, 0x6e, 0x73, 0x70, 0x6f, 0x73, 0x65, 0x5f, 
0x31, 0x5f, 0x31, 0x2f, 0x63, 0x6f, 0x6e, 0x76, 0x5f, 0x74, 0x72, 0x61, 
0x6e, 0x73, 0x70, 0x6f, 0x73, 0x65, 0x31, 0x00, 0x04, 0x00, 0x00, 0x00, 
0x01, 0x00, 0x00, 0x00, 0x01, 0x00, 0x00, 0x00, 0x0f, 0x00, 0x00, 0x00, 
0x10, 0x00, 0x00, 0x00, 0x96, 0xdb, 0xff, 0xff, 0x00, 0x00, 0x00, 0x01, 
0x18, 0x00, 0x00, 0x00, 0x28, 0x00, 0x00, 0x00, 0x48, 0x00, 0x00, 0x00, 
0x36, 0x00, 0x00, 0x00, 0x00, 0x00, 0x00, 0x09, 0x80, 0x00, 0x00, 0x00, 
0x04, 0x00, 0x00, 0x00, 0xff, 0xff, 0xff, 0xff, 0x01, 0x00, 0x00, 0x00, 
0x05, 0x00, 0x00, 0x00, 0x08, 0x00, 0x00, 0x00, 0x84, 0xdb, 0xff, 0xff, 
0x08, 0x00, 0x00, 0x00, 0x14, 0x00, 0x00, 0x00, 0x01, 0x00, 0x00, 0x00, 
0x80, 0xff, 0xff, 0xff, 0xff, 0xff, 0xff, 0xff, 0x00, 0x00, 0x00, 0x00, 
0x01, 0x00, 0x00, 0x00, 0x8a, 0x32, 0x11, 0x3d, 0x3d, 0x00, 0x00, 0x00, 
0x73, 0x65, 0x71, 0x75, 0x65, 0x6e, 0x74, 0x69, 0x61, 0x6c, 0x5f, 0x31, 
0x5f, 0x31, 0x2f, 0x63, 0x6f, 0x6e, 0x76, 0x31, 0x64, 0x5f, 0x74, 0x72, 
0x61, 0x6e, 0x73, 0x70, 0x6f, 0x73, 0x65, 0x5f, 0x31, 0x5f, 0x31, 0x2f, 
0x63, 0x6f, 0x6e, 0x76, 0x5f, 0x74, 0x72, 0x61, 0x6e, 0x73, 0x70, 0x6f, 
0x73, 0x65, 0x2f, 0x45, 0x78, 0x70, 0x61, 0x6e, 0x64, 0x44, 0x69, 0x6d, 
0x73, 0x00, 0x00, 0x00, 0x04, 0x00, 0x00, 0x00, 0x01, 0x00, 0x00, 0x00, 
0x01, 0x00, 0x00, 0x00, 0x05, 0x00, 0x00, 0x00, 0x08, 0x00, 0x00, 0x00, 
0x9a, 0xdc, 0xff, 0xff, 0x00, 0x00, 0x00, 0x01, 0x14, 0x00, 0x00, 0x00, 
0x14, 0x00, 0x00, 0x00, 0x35, 0x00, 0x00, 0x00, 0x00, 0x00, 0x00, 0x02, 
0x48, 0x00, 0x00, 0x00, 0x84, 0xdc, 0xff, 0xff, 0x39, 0x00, 0x00, 0x00, 
0x73, 0x65, 0x71, 0x75, 0x65, 0x6e, 0x74, 0x69, 0x61, 0x6c, 0x5f, 0x31, 
0x5f, 0x31, 0x2f, 0x63, 0x6f, 0x6e, 0x76, 0x31, 0x64, 0x5f, 0x74, 0x72, 
0x61, 0x6e, 0x73, 0x70, 0x6f, 0x73, 0x65, 0x5f, 0x31, 0x5f, 0x31, 0x2f, 
0x63, 0x6f, 0x6e, 0x76, 0x5f, 0x74, 0x72, 0x61, 0x6e, 0x73, 0x70, 0x6f, 
0x73, 0x65, 0x2f, 0x63, 0x6f, 0x6e, 0x63, 0x61, 0x74, 0x00, 0x00, 0x00, 
0x01, 0x00, 0x00, 0x00, 0x04, 0x00, 0x00, 0x00, 0x02, 0xdd, 0xff, 0xff, 
0x00, 0x00, 0x00, 0x01, 0x14, 0x00, 0x00, 0x00, 0x14, 0x00, 0x00, 0x00, 
0x34, 0x00, 0x00, 0x00, 0x00, 0x00, 0x00, 0x02, 0x50, 0x00, 0x00, 0x00, 
0xec, 0xdc, 0xff, 0xff, 0x42, 0x00, 0x00, 0x00, 0x73, 0x65, 0x71, 0x75, 
0x65, 0x6e, 0x74, 0x69, 0x61, 0x6c, 0x5f, 0x31, 0x5f, 0x31, 0x2f, 0x63, 
0x6f, 0x6e, 0x76, 0x31, 0x64, 0x5f, 0x74, 0x72, 0x61, 0x6e, 0x73, 0x70, 
0x6f, 0x73, 0x65, 0x5f, 0x31, 0x5f, 0x31, 0x2f, 0x63, 0x6f, 0x6e, 0x76, 
0x5f, 0x74, 0x72, 0x61, 0x6e, 0x73, 0x70, 0x6f, 0x73, 0x65, 0x2f, 0x63, 
0x6f, 0x6e, 0x63, 0x61, 0x74, 0x2f, 0x76, 0x61, 0x6c, 0x75, 0x65, 0x73, 
0x5f, 0x30, 0x00, 0x00, 0x01, 0x00, 0x00, 0x00, 0x01, 0x00, 0x00, 0x00, 
0x72, 0xdd, 0xff, 0xff, 0x00, 0x00, 0x00, 0x01, 0x14, 0x00, 0x00, 0x00, 
0x14, 0x00, 0x00, 0x00, 0x33, 0x00, 0x00, 0x00, 0x00, 0x00, 0x00, 0x02, 
0x40, 0x00, 0x00, 0x00, 0x5c, 0xdd, 0xff, 0xff, 0x31, 0x00, 0x00, 0x00, 
0x73, 0x65, 0x71, 0x75, 0x65, 0x6e, 0x74, 0x69, 0x61, 0x6c, 0x5f, 0x31, 
0x5f, 0x31, 0x2f, 0x63, 0x6f, 0x6e, 0x76, 0x31, 0x64, 0x5f, 0x74, 0x72, 
0x61, 0x6e, 0x73, 0x70, 0x6f, 0x73, 0x65, 0x5f, 0x31, 0x5f, 0x31, 0x2f, 
0x73, 0x74, 0x72, 0x69, 0x64, 0x65, 0x64, 0x5f, 0x73, 0x6c, 0x69, 0x63, 
0x65, 0x00, 0x00, 0x00, 0x00, 0x00, 0x00, 0x00, 0xce, 0xdd, 0xff, 0xff, 
0x00, 0x00, 0x00, 0x01, 0x14, 0x00, 0x00, 0x00, 0x14, 0x00, 0x00, 0x00, 
0x32, 0x00, 0x00, 0x00, 0x00, 0x00, 0x00, 0x02, 0x38, 0x00, 0x00, 0x00, 
0xb8, 0xdd, 0xff, 0xff, 0x29, 0x00, 0x00, 0x00, 0x73, 0x65, 0x71, 0x75, 
0x65, 0x6e, 0x74, 0x69, 0x61, 0x6c, 0x5f, 0x31, 0x5f, 0x31, 0x2f, 0x63, 
0x6f, 0x6e, 0x76, 0x31, 0x64, 0x5f, 0x74, 0x72, 0x61, 0x6e, 0x73, 0x70, 
0x6f, 0x73, 0x65, 0x5f, 0x31, 0x5f, 0x31, 0x2f, 0x53, 0x68, 0x61, 0x70, 
0x65, 0x00, 0x00, 0x00, 0x01, 0x00, 0x00, 0x00, 0x03, 0x00, 0x00, 0x00, 
0xd2, 0xdd, 0xff, 0xff, 0x00, 0x00, 0x00, 0x01, 0x18, 0x00, 0x00, 0x00, 
0x24, 0x00, 0x00, 0x00, 0x40, 0x00, 0x00, 0x00, 0x31, 0x00, 0x00, 0x00, 
0x00, 0x00, 0x00, 0x09, 0x5c, 0x00, 0x00, 0x00, 0x03, 0x00, 0x00, 0x00, 
0xff, 0xff, 0xff, 0xff, 0x05, 0x00, 0x00, 0x00, 0x08, 0x00, 0x00, 0x00, 
0xbc, 0xdd, 0xff, 0xff, 0x08, 0x00, 0x00, 0x00, 0x10, 0x00, 0x00, 0x00, 
0x01, 0x00, 0x00, 0x00, 0x80, 0xff, 0xff, 0xff, 0xff, 0xff, 0xff, 0xff, 
0x01, 0x00, 0x00, 0x00, 0x8a, 0x32, 0x11, 0x3d, 0x22, 0x00, 0x00, 0x00, 
0x73, 0x65, 0x71, 0x75, 0x65, 0x6e, 0x74, 0x69, 0x61, 0x6c, 0x5f, 0x31, 
0x5f, 0x31, 0x2f, 0x72, 0x65, 0x73, 0x68, 0x61, 0x70, 0x65, 0x5f, 0x31, 
0x5f, 0x31, 0x2f, 0x52, 0x65, 0x73, 0x68, 0x61, 0x70, 0x65, 0x00, 0x00, 
0x03, 0x00, 0x00, 0x00, 0x01, 0x00, 0x00, 0x00, 0x05, 0x00, 0x00, 0x00, 
0x08, 0x00, 0x00, 0x00, 0xae, 0xde, 0xff, 0xff, 0x00, 0x00, 0x00, 0x01, 
0x14, 0x00, 0x00, 0x00, 0x14, 0x00, 0x00, 0x00, 0x30, 0x00, 0x00, 0x00, 
0x00, 0x00, 0x00, 0x02, 0x38, 0x00, 0x00, 0x00, 0x98, 0xde, 0xff, 0xff, 
0x28, 0x00, 0x00, 0x00, 0x73, 0x65, 0x71, 0x75, 0x65, 0x6e, 0x74, 0x69, 
0x61, 0x6c, 0x5f, 0x31, 0x5f, 0x31, 0x2f, 0x72, 0x65, 0x73, 0x68, 0x61, 
0x70, 0x65, 0x5f, 0x31, 0x5f, 0x31, 0x2f, 0x52, 0x65, 0x73, 0x68, 0x61, 
0x70, 0x65, 0x2f, 0x73, 0x68, 0x61, 0x70, 0x65, 0x00, 0x00, 0x00, 0x00, 
0x01, 0x00, 0x00, 0x00, 0x03, 0x00, 0x00, 0x00, 0x06, 0xdf, 0xff, 0xff, 
0x00, 0x00, 0x00, 0x01, 0x14, 0x00, 0x00, 0x00, 0x14, 0x00, 0x00, 0x00, 
0x2f, 0x00, 0x00, 0x00, 0x00, 0x00, 0x00, 0x02, 0x38, 0x00, 0x00, 0x00, 
0xf0, 0xde, 0xff, 0xff, 0x28, 0x00, 0x00, 0x00, 0x73, 0x65, 0x71, 0x75, 
0x65, 0x6e, 0x74, 0x69, 0x61, 0x6c, 0x5f, 0x31, 0x5f, 0x31, 0x2f, 0x72, 
0x65, 0x73, 0x68, 0x61, 0x70, 0x65, 0x5f, 0x31, 0x5f, 0x31, 0x2f, 0x73, 
0x74, 0x72, 0x69, 0x64, 0x65, 0x64, 0x5f, 0x73, 0x6c, 0x69, 0x63, 0x65, 
0x00, 0x00, 0x00, 0x00, 0x00, 0x00, 0x00, 0x00, 0x5a, 0xdf, 0xff, 0xff, 
0x00, 0x00, 0x00, 0x01, 0x14, 0x00, 0x00, 0x00, 0x14, 0x00, 0x00, 0x00, 
0x2e, 0x00, 0x00, 0x00, 0x00, 0x00, 0x00, 0x02, 0x30, 0x00, 0x00, 0x00, 
0x44, 0xdf, 0xff, 0xff, 0x20, 0x00, 0x00, 0x00, 0x73, 0x65, 0x71, 0x75, 
0x65, 0x6e, 0x74, 0x69, 0x61, 0x6c, 0x5f, 0x31, 0x5f, 0x31, 0x2f, 0x72, 
0x65, 0x73, 0x68, 0x61, 0x70, 0x65, 0x5f, 0x31, 0x5f, 0x31, 0x2f, 0x53, 
0x68, 0x61, 0x70, 0x65, 0x00, 0x00, 0x00, 0x00, 0x01, 0x00, 0x00, 0x00, 
0x02, 0x00, 0x00, 0x00, 0x56, 0xdf, 0xff, 0xff, 0x00, 0x00, 0x00, 0x01, 
0x18, 0x00, 0x00, 0x00, 0x20, 0x00, 0x00, 0x00, 0x40, 0x00, 0x00, 0x00, 
0x2d, 0x00, 0x00, 0x00, 0x00, 0x00, 0x00, 0x09, 0x98, 0x00, 0x00, 0x00, 
0x02, 0x00, 0x00, 0x00, 0xff, 0xff, 0xff, 0xff, 0x28, 0x00, 0x00, 0x00, 
0x3c, 0xdf, 0xff, 0xff, 0x08, 0x00, 0x00, 0x00, 0x14, 0x00, 0x00, 0x00, 
0x01, 0x00, 0x00, 0x00, 0x80, 0xff, 0xff, 0xff, 0xff, 0xff, 0xff, 0xff, 
0x00, 0x00, 0x00, 0x00, 0x01, 0x00, 0x00, 0x00, 0x8a, 0x32, 0x11, 0x3d, 
0x5e, 0x00, 0x00, 0x00, 0x73, 0x65, 0x71, 0x75, 0x65, 0x6e, 0x74, 0x69, 
0x61, 0x6c, 0x5f, 0x31, 0x5f, 0x31, 0x2f, 0x64, 0x65, 0x6e, 0x73, 0x65, 
0x5f, 0x33, 0x5f, 0x31, 0x2f, 0x4d, 0x61, 0x74, 0x4d, 0x75, 0x6c, 0x3b, 
0x73, 0x65, 0x71, 0x75, 0x65, 0x6e, 0x74, 0x69, 0x61, 0x6c, 0x5f, 0x31, 
0x5f, 0x31, 0x2f, 0x64, 0x65, 0x6e, 0x73, 0x65, 0x5f, 0x33, 0x5f, 0x31, 
0x2f, 0x52, 0x65, 0x6c, 0x75, 0x3b, 0x73, 0x65, 0x71, 0x75, 0x65, 0x6e, 
0x74, 0x69, 0x61, 0x6c, 0x5f, 0x31, 0x5f, 0x31, 0x2f, 0x64, 0x65, 0x6e, 
0x73, 0x65, 0x5f, 0x33, 0x5f, 0x31, 0x2f, 0x42, 0x69, 0x61, 0x73, 0x41, 
0x64, 0x64, 0x00, 0x00, 0x02, 0x00, 0x00, 0x00, 0x01, 0x00, 0x00, 0x00, 
0x28, 0x00, 0x00, 0x00, 0x16, 0xe0, 0xff, 0xff, 0x00, 0x00, 0x00, 0x01, 
0x18, 0x00, 0x00, 0x00, 0x20, 0x00, 0x00, 0x00, 0x40, 0x00, 0x00, 0x00, 
0x2c, 0x00, 0x00, 0x00, 0x00, 0x00, 0x00, 0x09, 0x98, 0x00, 0x00, 0x00, 
0x02, 0x00, 0x00, 0x00, 0xff, 0xff, 0xff, 0xff, 0x04, 0x00, 0x00, 0x00, 
0xfc, 0xdf, 0xff, 0xff, 0x08, 0x00, 0x00, 0x00, 0x14, 0x00, 0x00, 0x00, 
0x01, 0x00, 0x00, 0x00, 0x80, 0xff, 0xff, 0xff, 0xff, 0xff, 0xff, 0xff, 
0x00, 0x00, 0x00, 0x00, 0x01, 0x00, 0x00, 0x00, 0xde, 0xbd, 0x59, 0x3d, 
0x5e, 0x00, 0x00, 0x00, 0x73, 0x65, 0x71, 0x75, 0x65, 0x6e, 0x74, 0x69, 
0x61, 0x6c, 0x5f, 0x31, 0x5f, 0x31, 0x2f, 0x64, 0x65, 0x6e, 0x73, 0x65, 
0x5f, 0x32, 0x5f, 0x31, 0x2f, 0x4d, 0x61, 0x74, 0x4d, 0x75, 0x6c, 0x3b, 
0x73, 0x65, 0x71, 0x75, 0x65, 0x6e, 0x74, 0x69, 0x61, 0x6c, 0x5f, 0x31, 
0x5f, 0x31, 0x2f, 0x64, 0x65, 0x6e, 0x73, 0x65, 0x5f, 0x32, 0x5f, 0x31, 
0x2f, 0x52, 0x65, 0x6c, 0x75, 0x3b, 0x73, 0x65, 0x71, 0x75, 0x65, 0x6e, 
0x74, 0x69, 0x61, 0x6c, 0x5f, 0x31, 0x5f, 0x31, 0x2f, 0x64, 0x65, 0x6e, 
0x73, 0x65, 0x5f, 0x32, 0x5f, 0x31, 0x2f, 0x42, 0x69, 0x61, 0x73, 0x41, 
0x64, 0x64, 0x00, 0x00, 0x02, 0x00, 0x00, 0x00, 0x01, 0x00, 0x00, 0x00, 
0x04, 0x00, 0x00, 0x00, 0xd6, 0xe0, 0xff, 0xff, 0x00, 0x00, 0x00, 0x01, 
0x18, 0x00, 0x00, 0x00, 0x20, 0x00, 0x00, 0x00, 0x3c, 0x00, 0x00, 0x00, 
0x2b, 0x00, 0x00, 0x00, 0x00, 0x00, 0x00, 0x09, 0x58, 0x00, 0x00, 0x00, 
0x02, 0x00, 0x00, 0x00, 0xff, 0xff, 0xff, 0xff, 0x28, 0x00, 0x00, 0x00, 
0xbc, 0xe0, 0xff, 0xff, 0x08, 0x00, 0x00, 0x00, 0x10, 0x00, 0x00, 0x00, 
0x01, 0x00, 0x00, 0x00, 0x80, 0xff, 0xff, 0xff, 0xff, 0xff, 0xff, 0xff, 
0x01, 0x00, 0x00, 0x00, 0xc4, 0x50, 0xd8, 0x3c, 0x22, 0x00, 0x00, 0x00, 
0x73, 0x65, 0x71, 0x75, 0x65, 0x6e, 0x74, 0x69, 0x61, 0x6c, 0x5f, 0x31, 
0x5f, 0x31, 0x2f, 0x66, 0x6c, 0x61, 0x74, 0x74, 0x65, 0x6e, 0x5f, 0x31, 
0x5f, 0x31, 0x2f, 0x52, 0x65, 0x73, 0x68, 0x61, 0x70, 0x65, 0x00, 0x00, 
0x02, 0x00, 0x00, 0x00, 0x01, 0x00, 0x00, 0x00, 0x28, 0x00, 0x00, 0x00, 
0xaa, 0xe1, 0xff, 0xff, 0x00, 0x00, 0x00, 0x01, 0x14, 0x00, 0x00, 0x00, 
0x14, 0x00, 0x00, 0x00, 0x2a, 0x00, 0x00, 0x00, 0x00, 0x00, 0x00, 0x02, 
0x38, 0x00, 0x00, 0x00, 0x94, 0xe1, 0xff, 0xff, 0x28, 0x00, 0x00, 0x00, 
0x73, 0x65, 0x71, 0x75, 0x65, 0x6e, 0x74, 0x69, 0x61, 0x6c, 0x5f, 0x31, 
0x5f, 0x31, 0x2f, 0x66, 0x6c, 0x61, 0x74, 0x74, 0x65, 0x6e, 0x5f, 0x31, 
0x5f, 0x31, 0x2f, 0x52, 0x65, 0x73, 0x68, 0x61, 0x70, 0x65, 0x2f, 0x73, 
0x68, 0x61, 0x70, 0x65, 0x00, 0x00, 0x00, 0x00, 0x01, 0x00, 0x00, 0x00, 
0x02, 0x00, 0x00, 0x00, 0x02, 0xe2, 0xff, 0xff, 0x00, 0x00, 0x00, 0x01, 
0x14, 0x00, 0x00, 0x00, 0x14, 0x00, 0x00, 0x00, 0x29, 0x00, 0x00, 0x00, 
0x00, 0x00, 0x00, 0x02, 0x38, 0x00, 0x00, 0x00, 0xec, 0xe1, 0xff, 0xff, 
0x28, 0x00, 0x00, 0x00, 0x73, 0x65, 0x71, 0x75, 0x65, 0x6e, 0x74, 0x69, 
0x61, 0x6c, 0x5f, 0x31, 0x5f, 0x31, 0x2f, 0x66, 0x6c, 0x61, 0x74, 0x74, 
0x65, 0x6e, 0x5f, 0x31, 0x5f, 0x31, 0x2f, 0x73, 0x74, 0x72, 0x69, 0x64, 
0x65, 0x64, 0x5f, 0x73, 0x6c, 0x69, 0x63, 0x65, 0x00, 0x00, 0x00, 0x00, 
0x00, 0x00, 0x00, 0x00, 0x56, 0xe2, 0xff, 0xff, 0x00, 0x00, 0x00, 0x01, 
0x14, 0x00, 0x00, 0x00, 0x14, 0x00, 0x00, 0x00, 0x28, 0x00, 0x00, 0x00, 
0x00, 0x00, 0x00, 0x02, 0x30, 0x00, 0x00, 0x00, 0x40, 0xe2, 0xff, 0xff, 
0x20, 0x00, 0x00, 0x00, 0x73, 0x65, 0x71, 0x75, 0x65, 0x6e, 0x74, 0x69, 
0x61, 0x6c, 0x5f, 0x31, 0x5f, 0x31, 0x2f, 0x66, 0x6c, 0x61, 0x74, 0x74, 
0x65, 0x6e, 0x5f, 0x31, 0x5f, 0x31, 0x2f, 0x53, 0x68, 0x61, 0x70, 0x65, 
0x00, 0x00, 0x00, 0x00, 0x01, 0x00, 0x00, 0x00, 0x03, 0x00, 0x00, 0x00, 
0x52, 0xe2, 0xff, 0xff, 0x00, 0x00, 0x00, 0x01, 0x18, 0x00, 0x00, 0x00, 
0x24, 0x00, 0x00, 0x00, 0x44, 0x00, 0x00, 0x00, 0x27, 0x00, 0x00, 0x00, 
0x00, 0x00, 0x00, 0x09, 0x70, 0x00, 0x00, 0x00, 0x03, 0x00, 0x00, 0x00, 
0xff, 0xff, 0xff, 0xff, 0x05, 0x00, 0x00, 0x00, 0x08, 0x00, 0x00, 0x00, 
0x3c, 0xe2, 0xff, 0xff, 0x08, 0x00, 0x00, 0x00, 0x14, 0x00, 0x00, 0x00, 
0x01, 0x00, 0x00, 0x00, 0x80, 0xff, 0xff, 0xff, 0xff, 0xff, 0xff, 0xff, 
0x00, 0x00, 0x00, 0x00, 0x01, 0x00, 0x00, 0x00, 0xc4, 0x50, 0xd8, 0x3c, 
0x33, 0x00, 0x00, 0x00, 0x73, 0x65, 0x71, 0x75, 0x65, 0x6e, 0x74, 0x69, 
0x61, 0x6c, 0x5f, 0x31, 0x5f, 0x31, 0x2f, 0x6d, 0x61, 0x78, 0x5f, 0x70, 
0x6f, 0x6f, 0x6c, 0x69, 0x6e, 0x67, 0x31, 0x64, 0x5f, 0x33, 0x5f, 0x31, 
0x2f, 0x4d, 0x61, 0x78, 0x50, 0x6f, 0x6f, 0x6c, 0x31, 0x64, 0x2f, 0x53, 
0x71, 0x75, 0x65, 0x65, 0x7a, 0x65, 0x31, 0x00, 0x03, 0x00, 0x00, 0x00, 
0x01, 0x00, 0x00, 0x00, 0x05, 0x00, 0x00, 0x00, 0x08, 0x00, 0x00, 0x00, 
0xee, 0xe2, 0xff, 0xff, 0x00, 0x00, 0x00, 0x01, 0x18, 0x00, 0x00, 0x00, 
0x28, 0x00, 0x00, 0x00, 0x44, 0x00, 0x00, 0x00, 0x26, 0x00, 0x00, 0x00, 
0x00, 0x00, 0x00, 0x09, 0x68, 0x00, 0x00, 0x00, 0x04, 0x00, 0x00, 0x00, 
0xff, 0xff, 0xff, 0xff, 0x01, 0x00, 0x00, 0x00, 0x05, 0x00, 0x00, 0x00, 
0x08, 0x00, 0x00, 0x00, 0xdc, 0xe2, 0xff, 0xff, 0x08, 0x00, 0x00, 0x00, 
0x10, 0x00, 0x00, 0x00, 0x01, 0x00, 0x00, 0x00, 0x80, 0xff, 0xff, 0xff, 
0xff, 0xff, 0xff, 0xff, 0x01, 0x00, 0x00, 0x00, 0xc4, 0x50, 0xd8, 0x3c, 
0x2a, 0x00, 0x00, 0x00, 0x73, 0x65, 0x71, 0x75, 0x65, 0x6e, 0x74, 0x69, 
0x61, 0x6c, 0x5f, 0x31, 0x5f, 0x31, 0x2f, 0x6d, 0x61, 0x78, 0x5f, 0x70, 
0x6f, 0x6f, 0x6c, 0x69, 0x6e, 0x67, 0x31, 0x64, 0x5f, 0x33, 0x5f, 0x31, 
0x2f, 0x4d, 0x61, 0x78, 0x50, 0x6f, 0x6f, 0x6c, 0x31, 0x64, 0x00, 0x00, 
0x04, 0x00, 0x00, 0x00, 0x01, 0x00, 0x00, 0x00, 0x01, 0x00, 0x00, 0x00, 
0x05, 0x00, 0x00, 0x00, 0x08, 0x00, 0x00, 0x00, 0x86, 0xe3, 0xff, 0xff, 
0x00, 0x00, 0x00, 0x01, 0x18, 0x00, 0x00, 0x00, 0x28, 0x00, 0x00, 0x00, 
0x44, 0x00, 0x00, 0x00, 0x25, 0x00, 0x00, 0x00, 0x00, 0x00, 0x00, 0x09, 
0x74, 0x00, 0x00, 0x00, 0x04, 0x00, 0x00, 0x00, 0xff, 0xff, 0xff, 0xff, 
0x01, 0x00, 0x00, 0x00, 0x0f, 0x00, 0x00, 0x00, 0x08, 0x00, 0x00, 0x00, 
0x74, 0xe3, 0xff, 0xff, 0x08, 0x00, 0x00, 0x00, 0x10, 0x00, 0x00, 0x00, 
0x01, 0x00, 0x00, 0x00, 0x80, 0xff, 0xff, 0xff, 0xff, 0xff, 0xff, 0xff, 
0x01, 0x00, 0x00, 0x00, 0xc4, 0x50, 0xd8, 0x3c, 0x35, 0x00, 0x00, 0x00, 
0x73, 0x65, 0x71, 0x75, 0x65, 0x6e, 0x74, 0x69, 0x61, 0x6c, 0x5f, 0x31, 
0x5f, 0x31, 0x2f, 0x6d, 0x61, 0x78, 0x5f, 0x70, 0x6f, 0x6f, 0x6c, 0x69, 
0x6e, 0x67, 0x31, 0x64, 0x5f, 0x33, 0x5f, 0x31, 0x2f, 0x4d, 0x61, 0x78, 
0x50, 0x6f, 0x6f, 0x6c, 0x31, 0x64, 0x2f, 0x45, 0x78, 0x70, 0x61, 0x6e, 
0x64, 0x44, 0x69, 0x6d, 0x73, 0x00, 0x00, 0x00, 0x04, 0x00, 0x00, 0x00, 
0x01, 0x00, 0x00, 0x00, 0x01, 0x00, 0x00, 0x00, 0x0f, 0x00, 0x00, 0x00, 
0x08, 0x00, 0x00, 0x00, 0x2a, 0xe4, 0xff, 0xff, 0x00, 0x00, 0x00, 0x01, 
0x18, 0x00, 0x00, 0x00, 0x24, 0x00, 0x00, 0x00, 0x44, 0x00, 0x00, 0x00, 
0x24, 0x00, 0x00, 0x00, 0x00, 0x00, 0x00, 0x09, 0xd0, 0x00, 0x00, 0x00, 
0x03, 0x00, 0x00, 0x00, 0xff, 0xff, 0xff, 0xff, 0x0f, 0x00, 0x00, 0x00, 
0x08, 0x00, 0x00, 0x00, 0x14, 0xe4, 0xff, 0xff, 0x08, 0x00, 0x00, 0x00, 
0x14, 0x00, 0x00, 0x00, 0x01, 0x00, 0x00, 0x00, 0x80, 0xff, 0xff, 0xff, 
0xff, 0xff, 0xff, 0xff, 0x00, 0x00, 0x00, 0x00, 0x01, 0x00, 0x00, 0x00, 
0xc4, 0x50, 0xd8, 0x3c, 0x90, 0x00, 0x00, 0x00, 0x73, 0x65, 0x71, 0x75, 
0x65, 0x6e, 0x74, 0x69, 0x61, 0x6c, 0x5f, 0x31, 0x5f, 0x31, 0x2f, 0x63, 
0x6f, 0x6e, 0x76, 0x31, 0x64, 0x5f, 0x33, 0x5f, 0x31, 0x2f, 0x52, 0x65, 
0x6c, 0x75, 0x3b, 0x73, 0x65, 0x71, 0x75, 0x65, 0x6e, 0x74, 0x69, 0x61, 
0x6c, 0x5f, 0x31, 0x5f, 0x31, 0x2f, 0x63, 0x6f, 0x6e, 0x76, 0x31, 0x64, 
0x5f, 0x33, 0x5f, 0x31, 0x2f, 0x42, 0x69, 0x61, 0x73, 0x41, 0x64, 0x64, 
0x3b, 0x73, 0x65, 0x71, 0x75, 0x65, 0x6e, 0x74, 0x69, 0x61, 0x6c, 0x5f, 
0x31, 0x5f, 0x31, 0x2f, 0x63, 0x6f, 0x6e, 0x76, 0x31, 0x64, 0x5f, 0x33, 
0x5f, 0x31, 0x2f, 0x63, 0x6f, 0x6e, 0x76, 0x6f, 0x6c, 0x75, 0x74, 0x69, 
0x6f, 0x6e, 0x2f, 0x53, 0x71, 0x75, 0x65, 0x65, 0x7a, 0x65, 0x3b, 0x73, 
0x65, 0x71, 0x75, 0x65, 0x6e, 0x74, 0x69, 0x61, 0x6c, 0x5f, 0x31, 0x5f, 
0x31, 0x2f, 0x63, 0x6f, 0x6e, 0x76, 0x31, 0x64, 0x5f, 0x33, 0x5f, 0x31, 
0x2f, 0x53, 0x71, 0x75, 0x65, 0x65, 0x7a, 0x65, 0x00, 0x00, 0x00, 0x00, 
0x03, 0x00, 0x00, 0x00, 0x01, 0x00, 0x00, 0x00, 0x0f, 0x00, 0x00, 0x00, 
0x08, 0x00, 0x00, 0x00, 0x26, 0xe5, 0xff, 0xff, 0x00, 0x00, 0x00, 0x01, 
0x18, 0x00, 0x00, 0x00, 0x28, 0x00, 0x00, 0x00, 0x48, 0x00, 0x00, 0x00, 
0x23, 0x00, 0x00, 0x00, 0x00, 0x00, 0x00, 0x09, 0xf8, 0x00, 0x00, 0x00, 
0x04, 0x00, 0x00, 0x00, 0xff, 0xff, 0xff, 0xff, 0x01, 0x00, 0x00, 0x00, 
0x0f, 0x00, 0x00, 0x00, 0x08, 0x00, 0x00, 0x00, 0x14, 0xe5, 0xff, 0xff, 
0x08, 0x00, 0x00, 0x00, 0x14, 0x00, 0x00, 0x00, 0x01, 0x00, 0x00, 0x00, 
0x80, 0xff, 0xff, 0xff, 0xff, 0xff, 0xff, 0xff, 0x00, 0x00, 0x00, 0x00, 
0x01, 0x00, 0x00, 0x00, 0xc4, 0x50, 0xd8, 0x3c, 0xb7, 0x00, 0x00, 0x00, 
0x73, 0x65, 0x71, 0x75, 0x65, 0x6e, 0x74, 0x69, 0x61, 0x6c, 0x5f, 0x31, 
0x5f, 0x31, 0x2f, 0x63, 0x6f, 0x6e, 0x76, 0x31, 0x64, 0x5f, 0x33, 0x5f, 
0x31, 0x2f, 0x52, 0x65, 0x6c, 0x75, 0x3b, 0x73, 0x65, 0x71, 0x75, 0x65, 
0x6e, 0x74, 0x69, 0x61, 0x6c, 0x5f, 0x31, 0x5f, 0x31, 0x2f, 0x63, 0x6f, 
0x6e, 0x76, 0x31, 0x64, 0x5f, 0x33, 0x5f, 0x31, 0x2f, 0x42, 0x69, 0x61, 
0x73, 0x41, 0x64, 0x64, 0x3b, 0x73, 0x65, 0x71, 0x75, 0x65, 0x6e, 0x74, 
0x69, 0x61, 0x6c, 0x5f, 0x31, 0x5f, 0x31, 0x2f, 0x63, 0x6f, 0x6e, 0x76, 
0x31, 0x64, 0x5f, 0x33, 0x5f, 0x31, 0x2f, 0x63, 0x6f, 0x6e, 0x76, 0x6f, 
0x6c, 0x75, 0x74, 0x69, 0x6f, 0x6e, 0x2f, 0x53, 0x71, 0x75, 0x65, 0x65, 
0x7a, 0x65, 0x3b, 0x73, 0x65, 0x71, 0x75, 0x65, 0x6e, 0x74, 0x69, 0x61, 
0x6c, 0x5f, 0x31, 0x5f, 0x31, 0x2f, 0x63, 0x6f, 0x6e, 0x76, 0x31, 0x64, 
0x5f, 0x33, 0x5f, 0x31, 0x2f, 0x53, 0x71, 0x75, 0x65, 0x65, 0x7a, 0x65, 
0x3b, 0x73, 0x65, 0x71, 0x75, 0x65, 0x6e, 0x74, 0x69, 0x61, 0x6c, 0x5f, 
0x31, 0x5f, 0x31, 0x2f, 0x63, 0x6f, 0x6e, 0x76, 0x31, 0x64, 0x5f, 0x33, 
0x5f, 0x31, 0x2f, 0x63, 0x6f, 0x6e, 0x76, 0x6f, 0x6c, 0x75, 0x74, 0x69, 
0x6f, 0x6e, 0x31, 0x00, 0x04, 0x00, 0x00, 0x00, 0x01, 0x00, 0x00, 0x00, 
0x01, 0x00, 0x00, 0x00, 0x0f, 0x00, 0x00, 0x00, 0x08, 0x00, 0x00, 0x00, 
0x4e, 0xe6, 0xff, 0xff, 0x00, 0x00, 0x00, 0x01, 0x18, 0x00, 0x00, 0x00, 
0x28, 0x00, 0x00, 0x00, 0x48, 0x00, 0x00, 0x00, 0x22, 0x00, 0x00, 0x00, 
0x00, 0x00, 0x00, 0x09, 0x74, 0x00, 0x00, 0x00, 0x04, 0x00, 0x00, 0x00, 
0xff, 0xff, 0xff, 0xff, 0x01, 0x00, 0x00, 0x00, 0x0f, 0x00, 0x00, 0x00, 
0x10, 0x00, 0x00, 0x00, 0x3c, 0xe6, 0xff, 0xff, 0x08, 0x00, 0x00, 0x00, 
0x14, 0x00, 0x00, 0x00, 0x01, 0x00, 0x00, 0x00, 0x80, 0xff, 0xff, 0xff, 
0xff, 0xff, 0xff, 0xff, 0x00, 0x00, 0x00, 0x00, 0x01, 0x00, 0x00, 0x00, 
0x6d, 0xf0, 0x2f, 0x3c, 0x30, 0x00, 0x00, 0x00, 0x73, 0x65, 0x71, 0x75, 
0x65, 0x6e, 0x74, 0x69, 0x61, 0x6c, 0x5f, 0x31, 0x5f, 0x31, 0x2f, 0x63, 
0x6f, 0x6e, 0x76, 0x31, 0x64, 0x5f, 0x33, 0x5f, 0x31, 0x2f, 0x63, 0x6f, 
0x6e, 0x76, 0x6f, 0x6c, 0x75, 0x74, 0x69, 0x6f, 0x6e, 0x2f, 0x45, 0x78, 
0x70, 0x61, 0x6e, 0x64, 0x44, 0x69, 0x6d, 0x73, 0x00, 0x00, 0x00, 0x00, 
0x04, 0x00, 0x00, 0x00, 0x01, 0x00, 0x00, 0x00, 0x01, 0x00, 0x00, 0x00, 
0x0f, 0x00, 0x00, 0x00, 0x10, 0x00, 0x00, 0x00, 0xf2, 0xe6, 0xff, 0xff, 
0x00, 0x00, 0x00, 0x01, 0x18, 0x00, 0x00, 0x00, 0x24, 0x00, 0x00, 0x00, 
0x44, 0x00, 0x00, 0x00, 0x21, 0x00, 0x00, 0x00, 0x00, 0x00, 0x00, 0x09, 
0x70, 0x00, 0x00, 0x00, 0x03, 0x00, 0x00, 0x00, 0xff, 0xff, 0xff, 0xff, 
0x0f, 0x00, 0x00, 0x00, 0x10, 0x00, 0x00, 0x00, 0xdc, 0xe6, 0xff, 0xff, 
0x08, 0x00, 0x00, 0x00, 0x14, 0x00, 0x00, 0x00, 0x01, 0x00, 0x00, 0x00, 
0x80, 0xff, 0xff, 0xff, 0xff, 0xff, 0xff, 0xff, 0x00, 0x00, 0x00, 0x00, 
0x01, 0x00, 0x00, 0x00, 0x6d, 0xf0, 0x2f, 0x3c, 0x32, 0x00, 0x00, 0x00, 
0x73, 0x65, 0x71, 0x75, 0x65, 0x6e, 0x74, 0x69, 0x61, 0x6c, 0x5f, 0x31, 
0x5f, 0x31, 0x2f, 0x6d, 0x61, 0x78, 0x5f, 0x70, 0x6f, 0x6f, 0x6c, 0x69, 
0x6e, 0x67, 0x31, 0x64, 0x5f, 0x32, 0x5f, 0x31, 0x2f, 0x4d, 0x61, 0x78, 
0x50, 0x6f, 0x6f, 0x6c, 0x31, 0x64, 0x2f, 0x53, 0x71, 0x75, 0x65, 0x65, 
0x7a, 0x65, 0x00, 0x00, 0x03, 0x00, 0x00, 0x00, 0x01, 0x00, 0x00, 0x00, 
0x0f, 0x00, 0x00, 0x00, 0x10, 0x00, 0x00, 0x00, 0x8e, 0xe7, 0xff, 0xff, 
0x00, 0x00, 0x00, 0x01, 0x18, 0x00, 0x00, 0x00, 0x28, 0x00, 0x00, 0x00, 
0x44, 0x00, 0x00, 0x00, 0x20, 0x00, 0x00, 0x00, 0x00, 0x00, 0x00, 0x09, 
0x68, 0x00, 0x00, 0x00, 0x04, 0x00, 0x00, 0x00, 0xff, 0xff, 0xff, 0xff, 
0x01, 0x00, 0x00, 0x00, 0x0f, 0x00, 0x00, 0x00, 0x10, 0x00, 0x00, 0x00, 
0x7c, 0xe7, 0xff, 0xff, 0x08, 0x00, 0x00, 0x00, 0x10, 0x00, 0x00, 0x00, 
0x01, 0x00, 0x00, 0x00, 0x80, 0xff, 0xff, 0xff, 0xff, 0xff, 0xff, 0xff, 
0x01, 0x00, 0x00, 0x00, 0x6d, 0xf0, 0x2f, 0x3c, 0x2a, 0x00, 0x00, 0x00, 
0x73, 0x65, 0x71, 0x75, 0x65, 0x6e, 0x74, 0x69, 0x61, 0x6c, 0x5f, 0x31, 
0x5f, 0x31, 0x2f, 0x6d, 0x61, 0x78, 0x5f, 0x70, 0x6f, 0x6f, 0x6c, 0x69, 
0x6e, 0x67, 0x31, 0x64, 0x5f, 0x32, 0x5f, 0x31, 0x2f, 0x4d, 0x61, 0x78, 
0x50, 0x6f, 0x6f, 0x6c, 0x31, 0x64, 0x00, 0x00, 0x04, 0x00, 0x00, 0x00, 
0x01, 0x00, 0x00, 0x00, 0x01, 0x00, 0x00, 0x00, 0x0f, 0x00, 0x00, 0x00, 
0x10, 0x00, 0x00, 0x00, 0x26, 0xe8, 0xff, 0xff, 0x00, 0x00, 0x00, 0x01, 
0x18, 0x00, 0x00, 0x00, 0x28, 0x00, 0x00, 0x00, 0x44, 0x00, 0x00, 0x00, 
0x1f, 0x00, 0x00, 0x00, 0x00, 0x00, 0x00, 0x09, 0x74, 0x00, 0x00, 0x00, 
0x04, 0x00, 0x00, 0x00, 0xff, 0xff, 0xff, 0xff, 0x01, 0x00, 0x00, 0x00, 
0x1e, 0x00, 0x00, 0x00, 0x10, 0x00, 0x00, 0x00, 0x14, 0xe8, 0xff, 0xff, 
0x08, 0x00, 0x00, 0x00, 0x10, 0x00, 0x00, 0x00, 0x01, 0x00, 0x00, 0x00, 
0x80, 0xff, 0xff, 0xff, 0xff, 0xff, 0xff, 0xff, 0x01, 0x00, 0x00, 0x00, 
0x6d, 0xf0, 0x2f, 0x3c, 0x35, 0x00, 0x00, 0x00, 0x73, 0x65, 0x71, 0x75, 
0x65, 0x6e, 0x74, 0x69, 0x61, 0x6c, 0x5f, 0x31, 0x5f, 0x31, 0x2f, 0x6d, 
0x61, 0x78, 0x5f, 0x70, 0x6f, 0x6f, 0x6c, 0x69, 0x6e, 0x67, 0x31, 0x64, 
0x5f, 0x32, 0x5f, 0x31, 0x2f, 0x4d, 0x61, 0x78, 0x50, 0x6f, 0x6f, 0x6c, 
0x31, 0x64, 0x2f, 0x45, 0x78, 0x70, 0x61, 0x6e, 0x64, 0x44, 0x69, 0x6d, 
0x73, 0x00, 0x00, 0x00, 0x04, 0x00, 0x00, 0x00, 0x01, 0x00, 0x00, 0x00, 
0x01, 0x00, 0x00, 0x00, 0x1e, 0x00, 0x00, 0x00, 0x10, 0x00, 0x00, 0x00, 
0xca, 0xe8, 0xff, 0xff, 0x00, 0x00, 0x00, 0x01, 0x18, 0x00, 0x00, 0x00, 
0x24, 0x00, 0x00, 0x00, 0x44, 0x00, 0x00, 0x00, 0x1e, 0x00, 0x00, 0x00, 
0x00, 0x00, 0x00, 0x09, 0xd0, 0x00, 0x00, 0x00, 0x03, 0x00, 0x00, 0x00, 
0xff, 0xff, 0xff, 0xff, 0x1e, 0x00, 0x00, 0x00, 0x10, 0x00, 0x00, 0x00, 
0xb4, 0xe8, 0xff, 0xff, 0x08, 0x00, 0x00, 0x00, 0x14, 0x00, 0x00, 0x00, 
0x01, 0x00, 0x00, 0x00, 0x80, 0xff, 0xff, 0xff, 0xff, 0xff, 0xff, 0xff, 
0x00, 0x00, 0x00, 0x00, 0x01, 0x00, 0x00, 0x00, 0x6d, 0xf0, 0x2f, 0x3c, 
0x90, 0x00, 0x00, 0x00, 0x73, 0x65, 0x71, 0x75, 0x65, 0x6e, 0x74, 0x69, 
0x61, 0x6c, 0x5f, 0x31, 0x5f, 0x31, 0x2f, 0x63, 0x6f, 0x6e, 0x76, 0x31, 
0x64, 0x5f, 0x32, 0x5f, 0x31, 0x2f, 0x52, 0x65, 0x6c, 0x75, 0x3b, 0x73, 
0x65, 0x71, 0x75, 0x65, 0x6e, 0x74, 0x69, 0x61, 0x6c, 0x5f, 0x31, 0x5f, 
0x31, 0x2f, 0x63, 0x6f, 0x6e, 0x76, 0x31, 0x64, 0x5f, 0x32, 0x5f, 0x31, 
0x2f, 0x42, 0x69, 0x61, 0x73, 0x41, 0x64, 0x64, 0x3b, 0x73, 0x65, 0x71, 
0x75, 0x65, 0x6e, 0x74, 0x69, 0x61, 0x6c, 0x5f, 0x31, 0x5f, 0x31, 0x2f, 
0x63, 0x6f, 0x6e, 0x76, 0x31, 0x64, 0x5f, 0x32, 0x5f, 0x31, 0x2f, 0x63, 
0x6f, 0x6e, 0x76, 0x6f, 0x6c, 0x75, 0x74, 0x69, 0x6f, 0x6e, 0x2f, 0x53, 
0x71, 0x75, 0x65, 0x65, 0x7a, 0x65, 0x3b, 0x73, 0x65, 0x71, 0x75, 0x65, 
0x6e, 0x74, 0x69, 0x61, 0x6c, 0x5f, 0x31, 0x5f, 0x31, 0x2f, 0x63, 0x6f, 
0x6e, 0x76, 0x31, 0x64, 0x5f, 0x32, 0x5f, 0x31, 0x2f, 0x53, 0x71, 0x75, 
0x65, 0x65, 0x7a, 0x65, 0x00, 0x00, 0x00, 0x00, 0x03, 0x00, 0x00, 0x00, 
0x01, 0x00, 0x00, 0x00, 0x1e, 0x00, 0x00, 0x00, 0x10, 0x00, 0x00, 0x00, 
0xc6, 0xe9, 0xff, 0xff, 0x00, 0x00, 0x00, 0x01, 0x18, 0x00, 0x00, 0x00, 
0x28, 0x00, 0x00, 0x00, 0x48, 0x00, 0x00, 0x00, 0x1d, 0x00, 0x00, 0x00, 
0x00, 0x00, 0x00, 0x09, 0xf8, 0x00, 0x00, 0x00, 0x04, 0x00, 0x00, 0x00, 
0xff, 0xff, 0xff, 0xff, 0x01, 0x00, 0x00, 0x00, 0x1e, 0x00, 0x00, 0x00, 
0x10, 0x00, 0x00, 0x00, 0xb4, 0xe9, 0xff, 0xff, 0x08, 0x00, 0x00, 0x00, 
0x14, 0x00, 0x00, 0x00, 0x01, 0x00, 0x00, 0x00, 0x80, 0xff, 0xff, 0xff, 
0xff, 0xff, 0xff, 0xff, 0x00, 0x00, 0x00, 0x00, 0x01, 0x00, 0x00, 0x00, 
0x6d, 0xf0, 0x2f, 0x3c, 0xb7, 0x00, 0x00, 0x00, 0x73, 0x65, 0x71, 0x75, 
0x65, 0x6e, 0x74, 0x69, 0x61, 0x6c, 0x5f, 0x31, 0x5f, 0x31, 0x2f, 0x63, 
0x6f, 0x6e, 0x76, 0x31, 0x64, 0x5f, 0x32, 0x5f, 0x31, 0x2f, 0x52, 0x65, 
0x6c, 0x75, 0x3b, 0x73, 0x65, 0x71, 0x75, 0x65, 0x6e, 0x74, 0x69, 0x61, 
0x6c, 0x5f, 0x31, 0x5f, 0x31, 0x2f, 0x63, 0x6f, 0x6e, 0x76, 0x31, 0x64, 
0x5f, 0x32, 0x5f, 0x31, 0x2f, 0x42, 0x69, 0x61, 0x73, 0x41, 0x64, 0x64, 
0x3b, 0x73, 0x65, 0x71, 0x75, 0x65, 0x6e, 0x74, 0x69, 0x61, 0x6c, 0x5f, 
0x31, 0x5f, 0x31, 0x2f, 0x63, 0x6f, 0x6e, 0x76, 0x31, 0x64, 0x5f, 0x32, 
0x5f, 0x31, 0x2f, 0x63, 0x6f, 0x6e, 0x76, 0x6f, 0x6c, 0x75, 0x74, 0x69, 
0x6f, 0x6e, 0x2f, 0x53, 0x71, 0x75, 0x65, 0x65, 0x7a, 0x65, 0x3b, 0x73, 
0x65, 0x71, 0x75, 0x65, 0x6e, 0x74, 0x69, 0x61, 0x6c, 0x5f, 0x31, 0x5f, 
0x31, 0x2f, 0x63, 0x6f, 0x6e, 0x76, 0x31, 0x64, 0x5f, 0x32, 0x5f, 0x31, 
0x2f, 0x53, 0x71, 0x75, 0x65, 0x65, 0x7a, 0x65, 0x3b, 0x73, 0x65, 0x71, 
0x75, 0x65, 0x6e, 0x74, 0x69, 0x61, 0x6c, 0x5f, 0x31, 0x5f, 0x31, 0x2f, 
0x63, 0x6f, 0x6e, 0x76, 0x31, 0x64, 0x5f, 0x32, 0x5f, 0x31, 0x2f, 0x63, 
0x6f, 0x6e, 0x76, 0x6f, 0x6c, 0x75, 0x74, 0x69, 0x6f, 0x6e, 0x31, 0x00, 
0x04, 0x00, 0x00, 0x00, 0x01, 0x00, 0x00, 0x00, 0x01, 0x00, 0x00, 0x00, 
0x1e, 0x00, 0x00, 0x00, 0x10, 0x00, 0x00, 0x00, 0xee, 0xea, 0xff, 0xff, 
0x00, 0x00, 0x00, 0x01, 0x18, 0x00, 0x00, 0x00, 0x28, 0x00, 0x00, 0x00, 
0x44, 0x00, 0x00, 0x00, 0x1c, 0x00, 0x00, 0x00, 0x00, 0x00, 0x00, 0x09, 
0x70, 0x00, 0x00, 0x00, 0x04, 0x00, 0x00, 0x00, 0xff, 0xff, 0xff, 0xff, 
0x01, 0x00, 0x00, 0x00, 0x1e, 0x00, 0x00, 0x00, 0x02, 0x00, 0x00, 0x00, 
0xdc, 0xea, 0xff, 0xff, 0x08, 0x00, 0x00, 0x00, 0x10, 0x00, 0x00, 0x00, 
0x01, 0x00, 0x00, 0x00, 0xfb, 0xff, 0xff, 0xff, 0xff, 0xff, 0xff, 0xff, 
0x01, 0x00, 0x00, 0x00, 0x73, 0xd7, 0xc2, 0x3c, 0x30, 0x00, 0x00, 0x00, 
0x73, 0x65, 0x71, 0x75, 0x65, 0x6e, 0x74, 0x69, 0x61, 0x6c, 0x5f, 0x31, 
0x5f, 0x31, 0x2f, 0x63, 0x6f, 0x6e, 0x76, 0x31, 0x64, 0x5f, 0x32, 0x5f, 
0x31, 0x2f, 0x63, 0x6f, 0x6e, 0x76, 0x6f, 0x6c, 0x75, 0x74, 0x69, 0x6f, 
0x6e, 0x2f, 0x45, 0x78, 0x70, 0x61, 0x6e, 0x64, 0x44, 0x69, 0x6d, 0x73, 
0x00, 0x00, 0x00, 0x00, 0x04, 0x00, 0x00, 0x00, 0x01, 0x00, 0x00, 0x00, 
0x01, 0x00, 0x00, 0x00, 0x1e, 0x00, 0x00, 0x00, 0x02, 0x00, 0x00, 0x00, 
0xe2, 0xeb, 0xff, 0xff, 0x00, 0x00, 0x00, 0x01, 0x14, 0x00, 0x00, 0x00, 
0xe4, 0x00, 0x00, 0x00, 0x1b, 0x00, 0x00, 0x00, 0x00, 0x00, 0x00, 0x09, 
0x04, 0x01, 0x00, 0x00, 0x64, 0xeb, 0xff, 0xff, 0x08, 0x00, 0x00, 0x00, 
0x88, 0x00, 0x00, 0x00, 0x10, 0x00, 0x00, 0x00, 0x00, 0x00, 0x00, 0x00, 
0x00, 0x00, 0x00, 0x00, 0x00, 0x00, 0x00, 0x00, 0x00, 0x00, 0x00, 0x00, 
0x00, 0x00, 0x00, 0x00, 0x00, 0x00, 0x00, 0x00, 0x00, 0x00, 0x00, 0x00, 
0x00, 0x00, 0x00, 0x00, 0x00, 0x00, 0x00, 0x00, 0x00, 0x00, 0x00, 0x00, 
0x00, 0x00, 0x00, 0x00, 0x00, 0x00, 0x00, 0x00, 0x00, 0x00, 0x00, 0x00, 
0x00, 0x00, 0x00, 0x00, 0x00, 0x00, 0x00, 0x00, 0x00, 0x00, 0x00, 0x00, 
0x00, 0x00, 0x00, 0x00, 0x00, 0x00, 0x00, 0x00, 0x00, 0x00, 0x00, 0x00, 
0x00, 0x00, 0x00, 0x00, 0x00, 0x00, 0x00, 0x00, 0x00, 0x00, 0x00, 0x00, 
0x00, 0x00, 0x00, 0x00, 0x00, 0x00, 0x00, 0x00, 0x00, 0x00, 0x00, 0x00, 
0x00, 0x00, 0x00, 0x00, 0x00, 0x00, 0x00, 0x00, 0x00, 0x00, 0x00, 0x00, 
0x00, 0x00, 0x00, 0x00, 0x00, 0x00, 0x00, 0x00, 0x00, 0x00, 0x00, 0x00, 
0x00, 0x00, 0x00, 0x00, 0x10, 0x00, 0x00, 0x00, 0xa0, 0x2e, 0x05, 0x3b, 
0x1d, 0xdc, 0x06, 0x3b, 0x68, 0x45, 0x12, 0x3b, 0x97, 0x46, 0x04, 0x3b, 
0xa0, 0x33, 0x27, 0x3b, 0x03, 0x41, 0x01, 0x3b, 0x6d, 0x94, 0x19, 0x3b, 
0xe9, 0x06, 0x08, 0x3b, 0x61, 0x54, 0xeb, 0x3a, 0x7a, 0x1e, 0x46, 0x3b, 
0x15, 0xed, 0x31, 0x3b, 0x9f, 0xdb, 0x18, 0x3b, 0xb3, 0x6f, 0x4e, 0x3b, 
0xb0, 0xa8, 0x08, 0x3b, 0x5d, 0xf5, 0x2b, 0x3b, 0x83, 0x75, 0x52, 0x3b, 
0x25, 0x00, 0x00, 0x00, 0x73, 0x65, 0x71, 0x75, 0x65, 0x6e, 0x74, 0x69, 
0x61, 0x6c, 0x5f, 0x31, 0x5f, 0x31, 0x2f, 0x63, 0x6f, 0x6e, 0x76, 0x31, 
0x64, 0x5f, 0x32, 0x5f, 0x31, 0x2f, 0x63, 0x6f, 0x6e, 0x76, 0x6f, 0x6c, 
0x75, 0x74, 0x69, 0x6f, 0x6e, 0x00, 0x00, 0x00, 0x04, 0x00, 0x00, 0x00, 
0x10, 0x00, 0x00, 0x00, 0x01, 0x00, 0x00, 0x00, 0x03, 0x00, 0x00, 0x00, 
0x02, 0x00, 0x00, 0x00, 0x12, 0xed, 0xff, 0xff, 0x00, 0x00, 0x00, 0x01, 
0x14, 0x00, 0x00, 0x00, 0xe8, 0x00, 0x00, 0x00, 0x1a, 0x00, 0x00, 0x00, 
0x00, 0x00, 0x00, 0x02, 0x98, 0x01, 0x00, 0x00, 0x94, 0xec, 0xff, 0xff, 
0x08, 0x00, 0x00, 0x00, 0x8c, 0x00, 0x00, 0x00, 0x10, 0x00, 0x00, 0x00, 
0x00, 0x00, 0x00, 0x00, 0x00, 0x00, 0x00, 0x00, 0x00, 0x00, 0x00, 0x00, 
0x00, 0x00, 0x00, 0x00, 0x00, 0x00, 0x00, 0x00, 0x00, 0x00, 0x00, 0x00, 
0x00, 0x00, 0x00, 0x00, 0x00, 0x00, 0x00, 0x00, 0x00, 0x00, 0x00, 0x00, 
0x00, 0x00, 0x00, 0x00, 0x00, 0x00, 0x00, 0x00, 0x00, 0x00, 0x00, 0x00, 
0x00, 0x00, 0x00, 0x00, 0x00, 0x00, 0x00, 0x00, 0x00, 0x00, 0x00, 0x00, 
0x00, 0x00, 0x00, 0x00, 0x00, 0x00, 0x00, 0x00, 0x00, 0x00, 0x00, 0x00, 
0x00, 0x00, 0x00, 0x00, 0x00, 0x00, 0x00, 0x00, 0x00, 0x00, 0x00, 0x00, 
0x00, 0x00, 0x00, 0x00, 0x00, 0x00, 0x00, 0x00, 0x00, 0x00, 0x00, 0x00, 
0x00, 0x00, 0x00, 0x00, 0x00, 0x00, 0x00, 0x00, 0x00, 0x00, 0x00, 0x00, 
0x00, 0x00, 0x00, 0x00, 0x00, 0x00, 0x00, 0x00, 0x00, 0x00, 0x00, 0x00, 
0x00, 0x00, 0x00, 0x00, 0x00, 0x00, 0x00, 0x00, 0x00, 0x00, 0x00, 0x00, 
0x10, 0x00, 0x00, 0x00, 0xd6, 0xba, 0x4a, 0x38, 0x9b, 0x48, 0x4d, 0x38, 
0x66, 0xa7, 0x5e, 0x38, 0xa2, 0x59, 0x49, 0x38, 0xad, 0x83, 0x7e, 0x38, 
0x18, 0xc0, 0x44, 0x38, 0x76, 0xc7, 0x69, 0x38, 0x6f, 0x0f, 0x4f, 0x38, 
0xff, 0x1b, 0x33, 0x38, 0xd5, 0xc9, 0x96, 0x38, 0x68, 0x6b, 0x87, 0x38, 
0x27, 0xae, 0x68, 0x38, 0x62, 0x1e, 0x9d, 0x38, 0xb1, 0x05, 0x50, 0x38, 
0xa9, 0xe0, 0x82, 0x38, 0x2d, 0x2e, 0xa0, 0x38, 0xb6, 0x00, 0x00, 0x00, 
0x73, 0x65, 0x71, 0x75, 0x65, 0x6e, 0x74, 0x69, 0x61, 0x6c, 0x5f, 0x31, 
0x5f, 0x31, 0x2f, 0x63, 0x6f, 0x6e, 0x76, 0x31, 0x64, 0x5f, 0x32, 0x5f, 
0x31, 0x2f, 0x52, 0x65, 0x6c, 0x75, 0x3b, 0x73, 0x65, 0x71, 0x75, 0x65, 
0x6e, 0x74, 0x69, 0x61, 0x6c, 0x5f, 0x31, 0x5f, 0x31, 0x2f, 0x63, 0x6f, 
0x6e, 0x76, 0x31, 0x64, 0x5f, 0x32, 0x5f, 0x31, 0x2f, 0x42, 0x69, 0x61, 
0x73, 0x41, 0x64, 0x64, 0x3b, 0x73, 0x65, 0x71, 0x75, 0x65, 0x6e, 0x74, 
0x69, 0x61, 0x6c, 0x5f, 0x31, 0x5f, 0x31, 0x2f, 0x63, 0x6f, 0x6e, 0x76, 
0x31, 0x64, 0x5f, 0x32, 0x5f, 0x31, 0x2f, 0x63, 0x6f, 0x6e, 0x76, 0x6f, 
0x6c, 0x75, 0x74, 0x69, 0x6f, 0x6e, 0x2f, 0x53, 0x71, 0x75, 0x65, 0x65, 
0x7a, 0x65, 0x3b, 0x73, 0x65, 0x71, 0x75, 0x65, 0x6e, 0x74, 0x69, 0x61, 
0x6c, 0x5f, 0x31, 0x5f, 0x31, 0x2f, 0x63, 0x6f, 0x6e, 0x76, 0x31, 0x64, 
0x5f, 0x32, 0x5f, 0x31, 0x2f, 0x53, 0x71, 0x75, 0x65, 0x65, 0x7a, 0x65, 
0x3b, 0x73, 0x65, 0x71, 0x75, 0x65, 0x6e, 0x74, 0x69, 0x61, 0x6c, 0x5f, 
0x31, 0x5f, 0x31, 0x2f, 0x63, 0x6f, 0x6e, 0x76, 0x31, 0x64, 0x5f, 0x32, 
0x5f, 0x31, 0x2f, 0x63, 0x6f, 0x6e, 0x76, 0x6f, 0x6c, 0x75, 0x74, 0x69, 
0x6f, 0x6e, 0x00, 0x00, 0x01, 0x00, 0x00, 0x00, 0x10, 0x00, 0x00, 0x00, 
0xca, 0xee, 0xff, 0xff, 0x00, 0x00, 0x00, 0x01, 0x14, 0x00, 0x00, 0x00, 
0x84, 0x00, 0x00, 0x00, 0x19, 0x00, 0x00, 0x00, 0x00, 0x00, 0x00, 0x09, 
0xa4, 0x00, 0x00, 0x00, 0x4c, 0xee, 0xff, 0xff, 0x08, 0x00, 0x00, 0x00, 
0x48, 0x00, 0x00, 0x00, 0x08, 0x00, 0x00, 0x00, 0x00, 0x00, 0x00, 0x00, 
0x00, 0x00, 0x00, 0x00, 0x00, 0x00, 0x00, 0x00, 0x00, 0x00, 0x00, 0x00, 
0x00, 0x00, 0x00, 0x00, 0x00, 0x00, 0x00, 0x00, 0x00, 0x00, 0x00, 0x00, 
0x00, 0x00, 0x00, 0x00, 0x00, 0x00, 0x00, 0x00, 0x00, 0x00, 0x00, 0x00, 
0x00, 0x00, 0x00, 0x00, 0x00, 0x00, 0x00, 0x00, 0x00, 0x00, 0x00, 0x00, 
0x00, 0x00, 0x00, 0x00, 0x00, 0x00, 0x00, 0x00, 0x00, 0x00, 0x00, 0x00, 
0x08, 0x00, 0x00, 0x00, 0x05, 0x3f, 0x62, 0x3b, 0xe7, 0x03, 0x52, 0x3b, 
0x04, 0x82, 0x67, 0x3b, 0xfc, 0x48, 0x54, 0x3b, 0xc2, 0x19, 0x65, 0x3b, 
0x0c, 0xb0, 0x42, 0x3b, 0x01, 0x39, 0x3b, 0x3b, 0x45, 0x62, 0x4e, 0x3b, 
0x25, 0x00, 0x00, 0x00, 0x73, 0x65, 0x71, 0x75, 0x65, 0x6e, 0x74, 0x69, 
0x61, 0x6c, 0x5f, 0x31, 0x5f, 0x31, 0x2f, 0x63, 0x6f, 0x6e, 0x76, 0x31, 
0x64, 0x5f, 0x33, 0x5f, 0x31, 0x2f, 0x63, 0x6f, 0x6e, 0x76, 0x6f, 0x6c, 
0x75, 0x74, 0x69, 0x6f, 0x6e, 0x00, 0x00, 0x00, 0x04, 0x00, 0x00, 0x00, 
0x08, 0x00, 0x00, 0x00, 0x01, 0x00, 0x00, 0x00, 0x03, 0x00, 0x00, 0x00, 
0x10, 0x00, 0x00, 0x00, 0x9a, 0xef, 0xff, 0xff, 0x00, 0x00, 0x00, 0x01, 
0x14, 0x00, 0x00, 0x00, 0x88, 0x00, 0x00, 0x00, 0x18, 0x00, 0x00, 0x00, 
0x00, 0x00, 0x00, 0x02, 0x38, 0x01, 0x00, 0x00, 0x1c, 0xef, 0xff, 0xff, 
0x08, 0x00, 0x00, 0x00, 0x4c, 0x00, 0x00, 0x00, 0x08, 0x00, 0x00, 0x00, 
0x00, 0x00, 0x00, 0x00, 0x00, 0x00, 0x00, 0x00, 0x00, 0x00, 0x00, 0x00, 
0x00, 0x00, 0x00, 0x00, 0x00, 0x00, 0x00, 0x00, 0x00, 0x00, 0x00, 0x00, 
0x00, 0x00, 0x00, 0x00, 0x00, 0x00, 0x00, 0x00, 0x00, 0x00, 0x00, 0x00, 
0x00, 0x00, 0x00, 0x00, 0x00, 0x00, 0x00, 0x00, 0x00, 0x00, 0x00, 0x00, 
0x00, 0x00, 0x00, 0x00, 0x00, 0x00, 0x00, 0x00, 0x00, 0x00, 0x00, 0x00, 
0x00, 0x00, 0x00, 0x00, 0x00, 0x00, 0x00, 0x00, 0x08, 0x00, 0x00, 0x00, 
0x90, 0x7d, 0x1b, 0x38, 0xe8, 0x55, 0x10, 0x38, 0x4d, 0x1b, 0x1f, 0x38, 
0x43, 0xe5, 0x11, 0x38, 0xc5, 0x73, 0x1d, 0x38, 0x30, 0xcd, 0x05, 0x38, 
0xcd, 0xab, 0x00, 0x38, 0x01, 0xd7, 0x0d, 0x38, 0xb6, 0x00, 0x00, 0x00, 
0x73, 0x65, 0x71, 0x75, 0x65, 0x6e, 0x74, 0x69, 0x61, 0x6c, 0x5f, 0x31, 
0x5f, 0x31, 0x2f, 0x63, 0x6f, 0x6e, 0x76, 0x31, 0x64, 0x5f, 0x33, 0x5f, 
0x31, 0x2f, 0x52, 0x65, 0x6c, 0x75, 0x3b, 0x73, 0x65, 0x71, 0x75, 0x65, 
0x6e, 0x74, 0x69, 0x61, 0x6c, 0x5f, 0x31, 0x5f, 0x31, 0x2f, 0x63, 0x6f, 
0x6e, 0x76, 0x31, 0x64, 0x5f, 0x33, 0x5f, 0x31, 0x2f, 0x42, 0x69, 0x61, 
0x73, 0x41, 0x64, 0x64, 0x3b, 0x73, 0x65, 0x71, 0x75, 0x65, 0x6e, 0x74, 
0x69, 0x61, 0x6c, 0x5f, 0x31, 0x5f, 0x31, 0x2f, 0x63, 0x6f, 0x6e, 0x76, 
0x31, 0x64, 0x5f, 0x33, 0x5f, 0x31, 0x2f, 0x63, 0x6f, 0x6e, 0x76, 0x6f, 
0x6c, 0x75, 0x74, 0x69, 0x6f, 0x6e, 0x2f, 0x53, 0x71, 0x75, 0x65, 0x65, 
0x7a, 0x65, 0x3b, 0x73, 0x65, 0x71, 0x75, 0x65, 0x6e, 0x74, 0x69, 0x61, 
0x6c, 0x5f, 0x31, 0x5f, 0x31, 0x2f, 0x63, 0x6f, 0x6e, 0x76, 0x31, 0x64, 
0x5f, 0x33, 0x5f, 0x31, 0x2f, 0x53, 0x71, 0x75, 0x65, 0x65, 0x7a, 0x65, 
0x3b, 0x73, 0x65, 0x71, 0x75, 0x65, 0x6e, 0x74, 0x69, 0x61, 0x6c, 0x5f, 
0x31, 0x5f, 0x31, 0x2f, 0x63, 0x6f, 0x6e, 0x76, 0x31, 0x64, 0x5f, 0x33, 
0x5f, 0x31, 0x2f, 0x63, 0x6f, 0x6e, 0x76, 0x6f, 0x6c, 0x75, 0x74, 0x69, 
0x6f, 0x6e, 0x00, 0x00, 0x01, 0x00, 0x00, 0x00, 0x08, 0x00, 0x00, 0x00, 
0xf2, 0xf0, 0xff, 0xff, 0x00, 0x00, 0x00, 0x01, 0x14, 0x00, 0x00, 0x00, 
0x54, 0x00, 0x00, 0x00, 0x17, 0x00, 0x00, 0x00, 0x00, 0x00, 0x00, 0x09, 
0x6c, 0x00, 0x00, 0x00, 0x74, 0xf0, 0xff, 0xff, 0x08, 0x00, 0x00, 0x00, 
0x28, 0x00, 0x00, 0x00, 0x04, 0x00, 0x00, 0x00, 0x00, 0x00, 0x00, 0x00, 
0x00, 0x00, 0x00, 0x00, 0x00, 0x00, 0x00, 0x00, 0x00, 0x00, 0x00, 0x00, 
0x00, 0x00, 0x00, 0x00, 0x00, 0x00, 0x00, 0x00, 0x00, 0x00, 0x00, 0x00, 
0x00, 0x00, 0x00, 0x00, 0x04, 0x00, 0x00, 0x00, 0xbc, 0x23, 0x9d, 0x3b, 
0xf7, 0xc2, 0x80, 0x3b, 0x9f, 0x89, 0x77, 0x3b, 0x04, 0x25, 0x8d, 0x3b, 
0x1f, 0x00, 0x00, 0x00, 0x73, 0x65, 0x71, 0x75, 0x65, 0x6e, 0x74, 0x69, 
0x61, 0x6c, 0x5f, 0x31, 0x5f, 0x31, 0x2f, 0x64, 0x65, 0x6e, 0x73, 0x65, 
0x5f, 0x32, 0x5f, 0x31, 0x2f, 0x4d, 0x61, 0x74, 0x4d, 0x75, 0x6c, 0x00, 
0x02, 0x00, 0x00, 0x00, 0x04, 0x00, 0x00, 0x00, 0x28, 0x00, 0x00, 0x00, 
0x82, 0xf1, 0xff, 0xff, 0x00, 0x00, 0x00, 0x01, 0x14, 0x00, 0x00, 0x00, 
0x58, 0x00, 0x00, 0x00, 0x16, 0x00, 0x00, 0x00, 0x00, 0x00, 0x00, 0x02, 
0x90, 0x00, 0x00, 0x00, 0x04, 0xf1, 0xff, 0xff, 0x08, 0x00, 0x00, 0x00, 
0x2c, 0x00, 0x00, 0x00, 0x04, 0x00, 0x00, 0x00, 0x00, 0x00, 0x00, 0x00, 
0x00, 0x00, 0x00, 0x00, 0x00, 0x00, 0x00, 0x00, 0x00, 0x00, 0x00, 0x00, 
0x00, 0x00, 0x00, 0x00, 0x00, 0x00, 0x00, 0x00, 0x00, 0x00, 0x00, 0x00, 
0x00, 0x00, 0x00, 0x00, 0x00, 0x00, 0x00, 0x00, 0x04, 0x00, 0x00, 0x00, 
0xba, 0xc7, 0x04, 0x39, 0x40, 0x9a, 0xd9, 0x38, 0x37, 0x2a, 0xd1, 0x38, 
0x86, 0x87, 0xee, 0x38, 0x3e, 0x00, 0x00, 0x00, 0x73, 0x65, 0x71, 0x75, 
0x65, 0x6e, 0x74, 0x69, 0x61, 0x6c, 0x5f, 0x31, 0x5f, 0x31, 0x2f, 0x64, 
0x65, 0x6e, 0x73, 0x65, 0x5f, 0x32, 0x5f, 0x31, 0x2f, 0x52, 0x65, 0x6c, 
0x75, 0x3b, 0x73, 0x65, 0x71, 0x75, 0x65, 0x6e, 0x74, 0x69, 0x61, 0x6c, 
0x5f, 0x31, 0x5f, 0x31, 0x2f, 0x64, 0x65, 0x6e, 0x73, 0x65, 0x5f, 0x32, 
0x5f, 0x31, 0x2f, 0x42, 0x69, 0x61, 0x73, 0x41, 0x64, 0x64, 0x00, 0x00, 
0x01, 0x00, 0x00, 0x00, 0x04, 0x00, 0x00, 0x00, 0x32, 0xf2, 0xff, 0xff, 
0x00, 0x00, 0x00, 0x01, 0x14, 0x00, 0x00, 0x00, 0x04, 0x02, 0x00, 0x00, 
0x15, 0x00, 0x00, 0x00, 0x00, 0x00, 0x00, 0x09, 0x1c, 0x02, 0x00, 0x00, 
0xb4, 0xf1, 0xff, 0xff, 0x08, 0x00, 0x00, 0x00, 0x48, 0x01, 0x00, 0x00, 
0x28, 0x00, 0x00, 0x00, 0x00, 0x00, 0x00, 0x00, 0x00, 0x00, 0x00, 0x00, 
0x00, 0x00, 0x00, 0x00, 0x00, 0x00, 0x00, 0x00, 0x00, 0x00, 0x00, 0x00, 
0x00, 0x00, 0x00, 0x00, 0x00, 0x00, 0x00, 0x00, 0x00, 0x00, 0x00, 0x00, 
0x00, 0x00, 0x00, 0x00, 0x00, 0x00, 0x00, 0x00, 0x00, 0x00, 0x00, 0x00, 
0x00, 0x00, 0x00, 0x00, 0x00, 0x00, 0x00, 0x00, 0x00, 0x00, 0x00, 0x00, 
0x00, 0x00, 0x00, 0x00, 0x00, 0x00, 0x00, 0x00, 0x00, 0x00, 0x00, 0x00, 
0x00, 0x00, 0x00, 0x00, 0x00, 0x00, 0x00, 0x00, 0x00, 0x00, 0x00, 0x00, 
0x00, 0x00, 0x00, 0x00, 0x00, 0x00, 0x00, 0x00, 0x00, 0x00, 0x00, 0x00, 
0x00, 0x00, 0x00, 0x00, 0x00, 0x00, 0x00, 0x00, 0x00, 0x00, 0x00, 0x00, 
0x00, 0x00, 0x00, 0x00, 0x00, 0x00, 0x00, 0x00, 0x00, 0x00, 0x00, 0x00, 
0x00, 0x00, 0x00, 0x00, 0x00, 0x00, 0x00, 0x00, 0x00, 0x00, 0x00, 0x00, 
0x00, 0x00, 0x00, 0x00, 0x00, 0x00, 0x00, 0x00, 0x00, 0x00, 0x00, 0x00, 
0x00, 0x00, 0x00, 0x00, 0x00, 0x00, 0x00, 0x00, 0x00, 0x00, 0x00, 0x00, 
0x00, 0x00, 0x00, 0x00, 0x00, 0x00, 0x00, 0x00, 0x00, 0x00, 0x00, 0x00, 
0x00, 0x00, 0x00, 0x00, 0x00, 0x00, 0x00, 0x00, 0x00, 0x00, 0x00, 0x00, 
0x00, 0x00, 0x00, 0x00, 0x00, 0x00, 0x00, 0x00, 0x00, 0x00, 0x00, 0x00, 
0x00, 0x00, 0x00, 0x00, 0x00, 0x00, 0x00, 0x00, 0x00, 0x00, 0x00, 0x00, 
0x00, 0x00, 0x00, 0x00, 0x00, 0x00, 0x00, 0x00, 0x00, 0x00, 0x00, 0x00, 
0x00, 0x00, 0x00, 0x00, 0x00, 0x00, 0x00, 0x00, 0x00, 0x00, 0x00, 0x00, 
0x00, 0x00, 0x00, 0x00, 0x00, 0x00, 0x00, 0x00, 0x00, 0x00, 0x00, 0x00, 
0x00, 0x00, 0x00, 0x00, 0x00, 0x00, 0x00, 0x00, 0x00, 0x00, 0x00, 0x00, 
0x00, 0x00, 0x00, 0x00, 0x00, 0x00, 0x00, 0x00, 0x00, 0x00, 0x00, 0x00, 
0x00, 0x00, 0x00, 0x00, 0x00, 0x00, 0x00, 0x00, 0x00, 0x00, 0x00, 0x00, 
0x00, 0x00, 0x00, 0x00, 0x00, 0x00, 0x00, 0x00, 0x00, 0x00, 0x00, 0x00, 
0x00, 0x00, 0x00, 0x00, 0x00, 0x00, 0x00, 0x00, 0x00, 0x00, 0x00, 0x00, 
0x00, 0x00, 0x00, 0x00, 0x00, 0x00, 0x00, 0x00, 0x00, 0x00, 0x00, 0x00, 
0x00, 0x00, 0x00, 0x00, 0x00, 0x00, 0x00, 0x00, 0x00, 0x00, 0x00, 0x00, 
0x28, 0x00, 0x00, 0x00, 0xf0, 0xf6, 0x5b, 0x3b, 0xd1, 0xd2, 0x1c, 0x3b, 
0x61, 0xeb, 0x0e, 0x3b, 0xbd, 0xa8, 0x1d, 0x3b, 0x88, 0x87, 0xb6, 0x3a, 
0x29, 0x49, 0x93, 0x3b, 0xea, 0xff, 0xce, 0x3a, 0xa0, 0x1c, 0x10, 0x3b, 
0x9c, 0x38, 0x27, 0x3b, 0xd4, 0x46, 0x56, 0x3b, 0x97, 0x98, 0x8b, 0x3b, 
0x1f, 0x56, 0x0b, 0x3b, 0x0c, 0xa5, 0x80, 0x3a, 0x51, 0xf4, 0x4c, 0x3b, 
0x74, 0x91, 0x51, 0x3b, 0xa1, 0x09, 0x89, 0x3b, 0x85, 0x88, 0x9a, 0x3b, 
0x4a, 0x02, 0x49, 0x3b, 0xab, 0xbe, 0x03, 0x3b, 0x79, 0x33, 0x2b, 0x3b, 
0x44, 0x63, 0x95, 0x3b, 0x09, 0x34, 0x44, 0x3b, 0x52, 0xee, 0x71, 0x3b, 
0x8d, 0xd1, 0x2c, 0x3b, 0xb5, 0x68, 0x2e, 0x3b, 0xc3, 0xed, 0x5c, 0x3b, 
0x23, 0x66, 0x3f, 0x3b, 0x0b, 0xb2, 0x10, 0x3b, 0xf2, 0xde, 0x42, 0x3b, 
0x46, 0xe4, 0x41, 0x3b, 0x8c, 0x4c, 0x7c, 0x3b, 0x4f, 0x56, 0x40, 0x3b, 
0xd0, 0x78, 0x3d, 0x3b, 0xf2, 0x78, 0xe3, 0x3a, 0x31, 0xa8, 0x3e, 0x3b, 
0xd3, 0x21, 0x40, 0x3b, 0x60, 0x87, 0xec, 0x3a, 0x69, 0x42, 0x62, 0x3b, 
0x70, 0x3f, 0x02, 0x3b, 0x2a, 0x44, 0x20, 0x3b, 0x1f, 0x00, 0x00, 0x00, 
0x73, 0x65, 0x71, 0x75, 0x65, 0x6e, 0x74, 0x69, 0x61, 0x6c, 0x5f, 0x31, 
0x5f, 0x31, 0x2f, 0x64, 0x65, 0x6e, 0x73, 0x65, 0x5f, 0x33, 0x5f, 0x31, 
0x2f, 0x4d, 0x61, 0x74, 0x4d, 0x75, 0x6c, 0x00, 0x02, 0x00, 0x00, 0x00, 
0x28, 0x00, 0x00, 0x00, 0x04, 0x00, 0x00, 0x00, 0x72, 0xf4, 0xff, 0xff, 
0x00, 0x00, 0x00, 0x01, 0x14, 0x00, 0x00, 0x00, 0x08, 0x02, 0x00, 0x00, 
0x14, 0x00, 0x00, 0x00, 0x00, 0x00, 0x00, 0x02, 0x40, 0x02, 0x00, 0x00, 
0xf4, 0xf3, 0xff, 0xff, 0x08, 0x00, 0x00, 0x00, 0x4c, 0x01, 0x00, 0x00, 
0x28, 0x00, 0x00, 0x00, 0x00, 0x00, 0x00, 0x00, 0x00, 0x00, 0x00, 0x00, 
0x00, 0x00, 0x00, 0x00, 0x00, 0x00, 0x00, 0x00, 0x00, 0x00, 0x00, 0x00, 
0x00, 0x00, 0x00, 0x00, 0x00, 0x00, 0x00, 0x00, 0x00, 0x00, 0x00, 0x00, 
0x00, 0x00, 0x00, 0x00, 0x00, 0x00, 0x00, 0x00, 0x00, 0x00, 0x00, 0x00, 
0x00, 0x00, 0x00, 0x00, 0x00, 0x00, 0x00, 0x00, 0x00, 0x00, 0x00, 0x00, 
0x00, 0x00, 0x00, 0x00, 0x00, 0x00, 0x00, 0x00, 0x00, 0x00, 0x00, 0x00, 
0x00, 0x00, 0x00, 0x00, 0x00, 0x00, 0x00, 0x00, 0x00, 0x00, 0x00, 0x00, 
0x00, 0x00, 0x00, 0x00, 0x00, 0x00, 0x00, 0x00, 0x00, 0x00, 0x00, 0x00, 
0x00, 0x00, 0x00, 0x00, 0x00, 0x00, 0x00, 0x00, 0x00, 0x00, 0x00, 0x00, 
0x00, 0x00, 0x00, 0x00, 0x00, 0x00, 0x00, 0x00, 0x00, 0x00, 0x00, 0x00, 
0x00, 0x00, 0x00, 0x00, 0x00, 0x00, 0x00, 0x00, 0x00, 0x00, 0x00, 0x00, 
0x00, 0x00, 0x00, 0x00, 0x00, 0x00, 0x00, 0x00, 0x00, 0x00, 0x00, 0x00, 
0x00, 0x00, 0x00, 0x00, 0x00, 0x00, 0x00, 0x00, 0x00, 0x00, 0x00, 0x00, 
0x00, 0x00, 0x00, 0x00, 0x00, 0x00, 0x00, 0x00, 0x00, 0x00, 0x00, 0x00, 
0x00, 0x00, 0x00, 0x00, 0x00, 0x00, 0x00, 0x00, 0x00, 0x00, 0x00, 0x00, 
0x00, 0x00, 0x00, 0x00, 0x00, 0x00, 0x00, 0x00, 0x00, 0x00, 0x00, 0x00, 
0x00, 0x00, 0x00, 0x00, 0x00, 0x00, 0x00, 0x00, 0x00, 0x00, 0x00, 0x00, 
0x00, 0x00, 0x00, 0x00, 0x00, 0x00, 0x00, 0x00, 0x00, 0x00, 0x00, 0x00, 
0x00, 0x00, 0x00, 0x00, 0x00, 0x00, 0x00, 0x00, 0x00, 0x00, 0x00, 0x00, 
0x00, 0x00, 0x00, 0x00, 0x00, 0x00, 0x00, 0x00, 0x00, 0x00, 0x00, 0x00, 
0x00, 0x00, 0x00, 0x00, 0x00, 0x00, 0x00, 0x00, 0x00, 0x00, 0x00, 0x00, 
0x00, 0x00, 0x00, 0x00, 0x00, 0x00, 0x00, 0x00, 0x00, 0x00, 0x00, 0x00, 
0x00, 0x00, 0x00, 0x00, 0x00, 0x00, 0x00, 0x00, 0x00, 0x00, 0x00, 0x00, 
0x00, 0x00, 0x00, 0x00, 0x00, 0x00, 0x00, 0x00, 0x00, 0x00, 0x00, 0x00, 
0x00, 0x00, 0x00, 0x00, 0x00, 0x00, 0x00, 0x00, 0x00, 0x00, 0x00, 0x00, 
0x00, 0x00, 0x00, 0x00, 0x00, 0x00, 0x00, 0x00, 0x00, 0x00, 0x00, 0x00, 
0x00, 0x00, 0x00, 0x00, 0x00, 0x00, 0x00, 0x00, 0x00, 0x00, 0x00, 0x00, 
0x00, 0x00, 0x00, 0x00, 0x28, 0x00, 0x00, 0x00, 0x75, 0x17, 0x3b, 0x39, 
0x03, 0x63, 0x05, 0x39, 0x0a, 0x1f, 0xf3, 0x38, 0xf7, 0x18, 0x06, 0x39, 
0x43, 0x40, 0x9b, 0x38, 0x81, 0x8c, 0x7a, 0x39, 0x74, 0x10, 0xb0, 0x38, 
0x4b, 0x26, 0xf5, 0x38, 0x02, 0x3b, 0x0e, 0x39, 0xf6, 0x40, 0x36, 0x39, 
0xc1, 0x77, 0x6d, 0x39, 0xaf, 0x06, 0xed, 0x38, 0xa1, 0xd6, 0x5a, 0x38, 
0x1b, 0x53, 0x2e, 0x39, 0xb9, 0x3f, 0x32, 0x39, 0x99, 0x1d, 0x69, 0x39, 
0x56, 0x70, 0x83, 0x39, 0x06, 0xf8, 0x2a, 0x39, 0xaa, 0x1c, 0xe0, 0x38, 
0x9b, 0x9d, 0x11, 0x39, 0xe1, 0x1f, 0x7e, 0x39, 0xa0, 0xe1, 0x26, 0x39, 
0x72, 0xc6, 0x4d, 0x39, 0xcd, 0xfd, 0x12, 0x39, 0x1c, 0x58, 0x14, 0x39, 
0x65, 0xe9, 0x3b, 0x39, 0x88, 0xcb, 0x22, 0x39, 0x78, 0x24, 0xf6, 0x38, 
0x83, 0xbf, 0x25, 0x39, 0x4d, 0xea, 0x24, 0x39, 0x02, 0x98, 0x56, 0x39, 
0xcf, 0x97, 0x23, 0x39, 0xef, 0x27, 0x21, 0x39, 0x3b, 0x7a, 0xc1, 0x38, 
0xf9, 0x29, 0x22, 0x39, 0x2b, 0x6b, 0x23, 0x39, 0x2d, 0x2e, 0xc9, 0x38, 
0x1a, 0x72, 0x40, 0x39, 0xbf, 0x90, 0xdd, 0x38, 0xa5, 0x50, 0x08, 0x39, 
0x3e, 0x00, 0x00, 0x00, 0x73, 0x65, 0x71, 0x75, 0x65, 0x6e, 0x74, 0x69, 
0x61, 0x6c, 0x5f, 0x31, 0x5f, 0x31, 0x2f, 0x64, 0x65, 0x6e, 0x73, 0x65, 
0x5f, 0x33, 0x5f, 0x31, 0x2f, 0x52, 0x65, 0x6c, 0x75, 0x3b, 0x73, 0x65, 
0x71, 0x75, 0x65, 0x6e, 0x74, 0x69, 0x61, 0x6c, 0x5f, 0x31, 0x5f, 0x31, 
0x2f, 0x64, 0x65, 0x6e, 0x73, 0x65, 0x5f, 0x33, 0x5f, 0x31, 0x2f, 0x42, 
0x69, 0x61, 0x73, 0x41, 0x64, 0x64, 0x00, 0x00, 0x01, 0x00, 0x00, 0x00, 
0x28, 0x00, 0x00, 0x00, 0xd2, 0xf6, 0xff, 0xff, 0x00, 0x00, 0x00, 0x01, 
0x14, 0x00, 0x00, 0x00, 0xe8, 0x00, 0x00, 0x00, 0x13, 0x00, 0x00, 0x00, 
0x00, 0x00, 0x00, 0x09, 0x14, 0x01, 0x00, 0x00, 0x54, 0xf6, 0xff, 0xff, 
0x08, 0x00, 0x00, 0x00, 0x8c, 0x00, 0x00, 0x00, 0x10, 0x00, 0x00, 0x00, 
0x00, 0x00, 0x00, 0x00, 0x00, 0x00, 0x00, 0x00, 0x00, 0x00, 0x00, 0x00, 
0x00, 0x00, 0x00, 0x00, 0x00, 0x00, 0x00, 0x00, 0x00, 0x00, 0x00, 0x00, 
0x00, 0x00, 0x00, 0x00, 0x00, 0x00, 0x00, 0x00, 0x00, 0x00, 0x00, 0x00, 
0x00, 0x00, 0x00, 0x00, 0x00, 0x00, 0x00, 0x00, 0x00, 0x00, 0x00, 0x00, 
0x00, 0x00, 0x00, 0x00, 0x00, 0x00, 0x00, 0x00, 0x00, 0x00, 0x00, 0x00, 
0x00, 0x00, 0x00, 0x00, 0x00, 0x00, 0x00, 0x00, 0x00, 0x00, 0x00, 0x00, 
0x00, 0x00, 0x00, 0x00, 0x00, 0x00, 0x00, 0x00, 0x00, 0x00, 0x00, 0x00, 
0x00, 0x00, 0x00, 0x00, 0x00, 0x00, 0x00, 0x00, 0x00, 0x00, 0x00, 0x00, 
0x00, 0x00, 0x00, 0x00, 0x00, 0x00, 0x00, 0x00, 0x00, 0x00, 0x00, 0x00, 
0x00, 0x00, 0x00, 0x00, 0x00, 0x00, 0x00, 0x00, 0x00, 0x00, 0x00, 0x00, 
0x00, 0x00, 0x00, 0x00, 0x00, 0x00, 0x00, 0x00, 0x00, 0x00, 0x00, 0x00, 
0x10, 0x00, 0x00, 0x00, 0xfb, 0xa7, 0x41, 0x3b, 0x4b, 0xfc, 0x6a, 0x3b, 
0x42, 0x84, 0x60, 0x3b, 0xcb, 0x33, 0x62, 0x3b, 0x08, 0xbd, 0x69, 0x3b, 
0x13, 0x56, 0x16, 0x3b, 0x2e, 0xac, 0x6f, 0x3b, 0xc5, 0xc3, 0x0d, 0x3b, 
0x2a, 0x5b, 0x78, 0x3b, 0x68, 0x12, 0x58, 0x3b, 0x8f, 0x97, 0x49, 0x3b, 
0x21, 0x06, 0x5c, 0x3b, 0x56, 0xa8, 0x4f, 0x3b, 0x9f, 0x03, 0x6d, 0x3b, 
0x89, 0x9c, 0x76, 0x3b, 0x6a, 0x24, 0x9f, 0x3b, 0x32, 0x00, 0x00, 0x00, 
0x73, 0x65, 0x71, 0x75, 0x65, 0x6e, 0x74, 0x69, 0x61, 0x6c, 0x5f, 0x31, 
0x5f, 0x31, 0x2f, 0x63, 0x6f, 0x6e, 0x76, 0x31, 0x64, 0x5f, 0x74, 0x72, 
0x61, 0x6e, 0x73, 0x70, 0x6f, 0x73, 0x65, 0x5f, 0x31, 0x5f, 0x31, 0x2f, 
0x63, 0x6f, 0x6e, 0x76, 0x5f, 0x74, 0x72, 0x61, 0x6e, 0x73, 0x70, 0x6f, 
0x73, 0x65, 0x00, 0x00, 0x04, 0x00, 0x00, 0x00, 0x10, 0x00, 0x00, 0x00, 
0x01, 0x00, 0x00, 0x00, 0x03, 0x00, 0x00, 0x00, 0x08, 0x00, 0x00, 0x00, 
0x12, 0xf8, 0xff, 0xff, 0x00, 0x00, 0x00, 0x01, 0x14, 0x00, 0x00, 0x00, 
0xe8, 0x00, 0x00, 0x00, 0x12, 0x00, 0x00, 0x00, 0x00, 0x00, 0x00, 0x02, 
0xd0, 0x01, 0x00, 0x00, 0x94, 0xf7, 0xff, 0xff, 0x08, 0x00, 0x00, 0x00, 
0x8c, 0x00, 0x00, 0x00, 0x10, 0x00, 0x00, 0x00, 0x00, 0x00, 0x00, 0x00, 
0x00, 0x00, 0x00, 0x00, 0x00, 0x00, 0x00, 0x00, 0x00, 0x00, 0x00, 0x00, 
0x00, 0x00, 0x00, 0x00, 0x00, 0x00, 0x00, 0x00, 0x00, 0x00, 0x00, 0x00, 
0x00, 0x00, 0x00, 0x00, 0x00, 0x00, 0x00, 0x00, 0x00, 0x00, 0x00, 0x00, 
0x00, 0x00, 0x00, 0x00, 0x00, 0x00, 0x00, 0x00, 0x00, 0x00, 0x00, 0x00, 
0x00, 0x00, 0x00, 0x00, 0x00, 0x00, 0x00, 0x00, 0x00, 0x00, 0x00, 0x00, 
0x00, 0x00, 0x00, 0x00, 0x00, 0x00, 0x00, 0x00, 0x00, 0x00, 0x00, 0x00, 
0x00, 0x00, 0x00, 0x00, 0x00, 0x00, 0x00, 0x00, 0x00, 0x00, 0x00, 0x00, 
0x00, 0x00, 0x00, 0x00, 0x00, 0x00, 0x00, 0x00, 0x00, 0x00, 0x00, 0x00, 
0x00, 0x00, 0x00, 0x00, 0x00, 0x00, 0x00, 0x00, 0x00, 0x00, 0x00, 0x00, 
0x00, 0x00, 0x00, 0x00, 0x00, 0x00, 0x00, 0x00, 0x00, 0x00, 0x00, 0x00, 
0x00, 0x00, 0x00, 0x00, 0x00, 0x00, 0x00, 0x00, 0x10, 0x00, 0x00, 0x00, 
0xc1, 0xac, 0xdb, 0x38, 0x4a, 0x47, 0x05, 0x39, 0x78, 0xae, 0xfe, 0x38, 
0xfe, 0x4b, 0x00, 0x39, 0x36, 0x92, 0x04, 0x39, 0xdd, 0x88, 0xaa, 0x38, 
0xd7, 0xef, 0x07, 0x39, 0xbe, 0xcf, 0xa0, 0x38, 0xaa, 0xdc, 0x0c, 0x39, 
0x2a, 0x1a, 0xf5, 0x38, 0x49, 0xad, 0xe4, 0x38, 0xd1, 0x95, 0xf9, 0x38, 
0xaf, 0x8e, 0xeb, 0x38, 0xd8, 0x6d, 0x06, 0x39, 0x59, 0xdf, 0x0b, 0x39, 
0x16, 0x86, 0x34, 0x39, 0xee, 0x00, 0x00, 0x00, 0x73, 0x65, 0x71, 0x75, 
0x65, 0x6e, 0x74, 0x69, 0x61, 0x6c, 0x5f, 0x31, 0x5f, 0x31, 0x2f, 0x63, 
0x6f, 0x6e, 0x76, 0x31, 0x64, 0x5f, 0x74, 0x72, 0x61, 0x6e, 0x73, 0x70, 
0x6f, 0x73, 0x65, 0x5f, 0x31, 0x5f, 0x31, 0x2f, 0x52, 0x65, 0x6c, 0x75, 
0x3b, 0x73, 0x65, 0x71, 0x75, 0x65, 0x6e, 0x74, 0x69, 0x61, 0x6c, 0x5f, 
0x31, 0x5f, 0x31, 0x2f, 0x63, 0x6f, 0x6e, 0x76, 0x31, 0x64, 0x5f, 0x74, 
0x72, 0x61, 0x6e, 0x73, 0x70, 0x6f, 0x73, 0x65, 0x5f, 0x31, 0x5f, 0x31, 
0x2f, 0x42, 0x69, 0x61, 0x73, 0x41, 0x64, 0x64, 0x3b, 0x73, 0x65, 0x71, 
0x75, 0x65, 0x6e, 0x74, 0x69, 0x61, 0x6c, 0x5f, 0x31, 0x5f, 0x31, 0x2f, 
0x63, 0x6f, 0x6e, 0x76, 0x31, 0x64, 0x5f, 0x74, 0x72, 0x61, 0x6e, 0x73, 
0x70, 0x6f, 0x73, 0x65, 0x5f, 0x31, 0x5f, 0x31, 0x2f, 0x63, 0x6f, 0x6e, 
0x76, 0x5f, 0x74, 0x72, 0x61, 0x6e, 0x73, 0x70, 0x6f, 0x73, 0x65, 0x2f, 
0x53, 0x71, 0x75, 0x65, 0x65, 0x7a, 0x65, 0x3b, 0x73, 0x65, 0x71, 0x75, 
0x65, 0x6e, 0x74, 0x69, 0x61, 0x6c, 0x5f, 0x31, 0x5f, 0x31, 0x2f, 0x63, 
0x6f, 0x6e, 0x76, 0x31, 0x64, 0x5f, 0x74, 0x72, 0x61, 0x6e, 0x73, 0x70, 
0x6f, 0x73, 0x65, 0x5f, 0x31, 0x5f, 0x31, 0x2f, 0x53, 0x71, 0x75, 0x65, 
0x65, 0x7a, 0x65, 0x3b, 0x73, 0x65, 0x71, 0x75, 0x65, 0x6e, 0x74, 0x69, 
0x61, 0x6c, 0x5f, 0x31, 0x5f, 0x31, 0x2f, 0x63, 0x6f, 0x6e, 0x76, 0x31, 
0x64, 0x5f, 0x74, 0x72, 0x61, 0x6e, 0x73, 0x70, 0x6f, 0x73, 0x65, 0x5f, 
0x31, 0x5f, 0x31, 0x2f, 0x63, 0x6f, 0x6e, 0x76, 0x5f, 0x74, 0x72, 0x61, 
0x6e, 0x73, 0x70, 0x6f, 0x73, 0x65, 0x00, 0x00, 0x01, 0x00, 0x00, 0x00, 
0x10, 0x00, 0x00, 0x00, 0x02, 0xfa, 0xff, 0xff, 0x00, 0x00, 0x00, 0x01, 
0x14, 0x00, 0x00, 0x00, 0x40, 0x00, 0x00, 0x00, 0x11, 0x00, 0x00, 0x00, 
0x00, 0x00, 0x00, 0x09, 0x6c, 0x00, 0x00, 0x00, 0x84, 0xf9, 0xff, 0xff, 
0x08, 0x00, 0x00, 0x00, 0x1c, 0x00, 0x00, 0x00, 0x02, 0x00, 0x00, 0x00, 
0x00, 0x00, 0x00, 0x00, 0x00, 0x00, 0x00, 0x00, 0x00, 0x00, 0x00, 0x00, 
0x00, 0x00, 0x00, 0x00, 0x00, 0x00, 0x00, 0x00, 0x02, 0x00, 0x00, 0x00, 
0x61, 0xa5, 0xe7, 0x3b, 0x1a, 0xc6, 0xb2, 0x3b, 0x32, 0x00, 0x00, 0x00, 
0x73, 0x65, 0x71, 0x75, 0x65, 0x6e, 0x74, 0x69, 0x61, 0x6c, 0x5f, 0x31, 
0x5f, 0x31, 0x2f, 0x63, 0x6f, 0x6e, 0x76, 0x31, 0x64, 0x5f, 0x74, 0x72, 
0x61, 0x6e, 0x73, 0x70, 0x6f, 0x73, 0x65, 0x5f, 0x32, 0x5f, 0x31, 0x2f, 
0x63, 0x6f, 0x6e, 0x76, 0x5f, 0x74, 0x72, 0x61, 0x6e, 0x73, 0x70, 0x6f, 
0x73, 0x65, 0x00, 0x00, 0x04, 0x00, 0x00, 0x00, 0x02, 0x00, 0x00, 0x00, 
0x01, 0x00, 0x00, 0x00, 0x03, 0x00, 0x00, 0x00, 0x10, 0x00, 0x00, 0x00, 
0x9a, 0xfa, 0xff, 0xff, 0x00, 0x00, 0x00, 0x01, 0x14, 0x00, 0x00, 0x00, 
0x3c, 0x00, 0x00, 0x00, 0x10, 0x00, 0x00, 0x00, 0x00, 0x00, 0x00, 0x02, 
0xfc, 0x00, 0x00, 0x00, 0x1c, 0xfa, 0xff, 0xff, 0x08, 0x00, 0x00, 0x00, 
0x18, 0x00, 0x00, 0x00, 0x02, 0x00, 0x00, 0x00, 0x00, 0x00, 0x00, 0x00, 
0x00, 0x00, 0x00, 0x00, 0x00, 0x00, 0x00, 0x00, 0x00, 0x00, 0x00, 0x00, 
0x02, 0x00, 0x00, 0x00, 0xaa, 0x72, 0xf8, 0x38, 0xa3, 0xbd, 0xbf, 0x38, 
0xc5, 0x00, 0x00, 0x00, 0x73, 0x65, 0x71, 0x75, 0x65, 0x6e, 0x74, 0x69, 
0x61, 0x6c, 0x5f, 0x31, 0x5f, 0x31, 0x2f, 0x63, 0x6f, 0x6e, 0x76, 0x31, 
0x64, 0x5f, 0x74, 0x72, 0x61, 0x6e, 0x73, 0x70, 0x6f, 0x73, 0x65, 0x5f, 
0x32, 0x5f, 0x31, 0x2f, 0x42, 0x69, 0x61, 0x73, 0x41, 0x64, 0x64, 0x3b, 
0x73, 0x65, 0x71, 0x75, 0x65, 0x6e, 0x74, 0x69, 0x61, 0x6c, 0x5f, 0x31, 
0x5f, 0x31, 0x2f, 0x63, 0x6f, 0x6e, 0x76, 0x31, 0x64, 0x5f, 0x74, 0x72, 
0x61, 0x6e, 0x73, 0x70, 0x6f, 0x73, 0x65, 0x5f, 0x32, 0x5f, 0x31, 0x2f, 
0x63, 0x6f, 0x6e, 0x76, 0x5f, 0x74, 0x72, 0x61, 0x6e, 0x73, 0x70, 0x6f, 
0x73, 0x65, 0x2f, 0x53, 0x71, 0x75, 0x65, 0x65, 0x7a, 0x65, 0x3b, 0x73, 
0x65, 0x71, 0x75, 0x65, 0x6e, 0x74, 0x69, 0x61, 0x6c, 0x5f, 0x31, 0x5f, 
0x31, 0x2f, 0x63, 0x6f, 0x6e, 0x76, 0x31, 0x64, 0x5f, 0x74, 0x72, 0x61, 
0x6e, 0x73, 0x70, 0x6f, 0x73, 0x65, 0x5f, 0x32, 0x5f, 0x31, 0x2f, 0x53, 
0x71, 0x75, 0x65, 0x65, 0x7a, 0x65, 0x3b, 0x73, 0x65, 0x71, 0x75, 0x65, 
0x6e, 0x74, 0x69, 0x61, 0x6c, 0x5f, 0x31, 0x5f, 0x31, 0x2f, 0x63, 0x6f, 
0x6e, 0x76, 0x31, 0x64, 0x5f, 0x74, 0x72, 0x61, 0x6e, 0x73, 0x70, 0x6f, 
0x73, 0x65, 0x5f, 0x32, 0x5f, 0x31, 0x2f, 0x63, 0x6f, 0x6e, 0x76, 0x5f, 
0x74, 0x72, 0x61, 0x6e, 0x73, 0x70, 0x6f, 0x73, 0x65, 0x00, 0x00, 0x00, 
0x01, 0x00, 0x00, 0x00, 0x02, 0x00, 0x00, 0x00, 0xb6, 0xfb, 0xff, 0xff, 
0x00, 0x00, 0x00, 0x01, 0x14, 0x00, 0x00, 0x00, 0x14, 0x00, 0x00, 0x00, 
0x0f, 0x00, 0x00, 0x00, 0x00, 0x00, 0x00, 0x02, 0x48, 0x00, 0x00, 0x00, 
0xa0, 0xfb, 0xff, 0xff, 0x3a, 0x00, 0x00, 0x00, 0x73, 0x65, 0x71, 0x75, 
0x65, 0x6e, 0x74, 0x69, 0x61, 0x6c, 0x5f, 0x31, 0x5f, 0x31, 0x2f, 0x63, 
0x6f, 0x6e, 0x76, 0x31, 0x64, 0x5f, 0x74, 0x72, 0x61, 0x6e, 0x73, 0x70, 
0x6f, 0x73, 0x65, 0x5f, 0x32, 0x5f, 0x31, 0x2f, 0x63, 0x6f, 0x6e, 0x76, 
0x5f, 0x74, 0x72, 0x61, 0x6e, 0x73, 0x70, 0x6f, 0x73, 0x65, 0x2f, 0x53, 
0x71, 0x75, 0x65, 0x65, 0x7a, 0x65, 0x00, 0x00, 0x01, 0x00, 0x00, 0x00, 
0x03, 0x00, 0x00, 0x00, 0x1e, 0xfc, 0xff, 0xff, 0x00, 0x00, 0x00, 0x01, 
0x14, 0x00, 0x00, 0x00, 0x14, 0x00, 0x00, 0x00, 0x0e, 0x00, 0x00, 0x00, 
0x00, 0x00, 0x00, 0x02, 0x50, 0x00, 0x00, 0x00, 0x08, 0xfc, 0xff, 0xff, 
0x42, 0x00, 0x00, 0x00, 0x73, 0x65, 0x71, 0x75, 0x65, 0x6e, 0x74, 0x69, 
0x61, 0x6c, 0x5f, 0x31, 0x5f, 0x31, 0x2f, 0x63, 0x6f, 0x6e, 0x76, 0x31, 
0x64, 0x5f, 0x74, 0x72, 0x61, 0x6e, 0x73, 0x70, 0x6f, 0x73, 0x65, 0x5f, 
0x32, 0x5f, 0x31, 0x2f, 0x63, 0x6f, 0x6e, 0x76, 0x5f, 0x74, 0x72, 0x61, 
0x6e, 0x73, 0x70, 0x6f, 0x73, 0x65, 0x2f, 0x63, 0x6f, 0x6e, 0x63, 0x61, 
0x74, 0x2f, 0x76, 0x61, 0x6c, 0x75, 0x65, 0x73, 0x5f, 0x32, 0x00, 0x00, 
0x01, 0x00, 0x00, 0x00, 0x02, 0x00, 0x00, 0x00, 0x8e, 0xfc, 0xff, 0xff, 
0x00, 0x00, 0x00, 0x01, 0x14, 0x00, 0x00, 0x00, 0x14, 0x00, 0x00, 0x00, 
0x0d, 0x00, 0x00, 0x00, 0x00, 0x00, 0x00, 0x02, 0x50, 0x00, 0x00, 0x00, 
0x78, 0xfc, 0xff, 0xff, 0x42, 0x00, 0x00, 0x00, 0x73, 0x65, 0x71, 0x75, 
0x65, 0x6e, 0x74, 0x69, 0x61, 0x6c, 0x5f, 0x31, 0x5f, 0x31, 0x2f, 0x63, 
0x6f, 0x6e, 0x76, 0x31, 0x64, 0x5f, 0x74, 0x72, 0x61, 0x6e, 0x73, 0x70, 
0x6f, 0x73, 0x65, 0x5f, 0x31, 0x5f, 0x31, 0x2f, 0x63, 0x6f, 0x6e, 0x76, 
0x5f, 0x74, 0x72, 0x61, 0x6e, 0x73, 0x70, 0x6f, 0x73, 0x65, 0x2f, 0x63, 
0x6f, 0x6e, 0x63, 0x61, 0x74, 0x2f, 0x76, 0x61, 0x6c, 0x75, 0x65, 0x73, 
0x5f, 0x32, 0x00, 0x00, 0x01, 0x00, 0x00, 0x00, 0x02, 0x00, 0x00, 0x00, 
0xfe, 0xfc, 0xff, 0xff, 0x00, 0x00, 0x00, 0x01, 0x14, 0x00, 0x00, 0x00, 
0x14, 0x00, 0x00, 0x00, 0x0c, 0x00, 0x00, 0x00, 0x00, 0x00, 0x00, 0x02, 
0x38, 0x00, 0x00, 0x00, 0xe8, 0xfc, 0xff, 0xff, 0x2a, 0x00, 0x00, 0x00, 
0x73, 0x65, 0x71, 0x75, 0x65, 0x6e, 0x74, 0x69, 0x61, 0x6c, 0x5f, 0x31, 
0x5f, 0x31, 0x2f, 0x72, 0x65, 0x73, 0x68, 0x61, 0x70, 0x65, 0x5f, 0x31, 
0x5f, 0x31, 0x2f, 0x52, 0x65, 0x73, 0x68, 0x61, 0x70, 0x65, 0x2f, 0x73, 
0x68, 0x61, 0x70, 0x65, 0x2f, 0x32, 0x00, 0x00, 0x00, 0x00, 0x00, 0x00, 
0x52, 0xfd, 0xff, 0xff, 0x00, 0x00, 0x00, 0x01, 0x14, 0x00, 0x00, 0x00, 
0x14, 0x00, 0x00, 0x00, 0x0b, 0x00, 0x00, 0x00, 0x00, 0x00, 0x00, 0x02, 
0x38, 0x00, 0x00, 0x00, 0x3c, 0xfd, 0xff, 0xff, 0x2a, 0x00, 0x00, 0x00, 
0x73, 0x65, 0x71, 0x75, 0x65, 0x6e, 0x74, 0x69, 0x61, 0x6c, 0x5f, 0x31, 
0x5f, 0x31, 0x2f, 0x72, 0x65, 0x73, 0x68, 0x61, 0x70, 0x65, 0x5f, 0x31, 
0x5f, 0x31, 0x2f, 0x52, 0x65, 0x73, 0x68, 0x61, 0x70, 0x65, 0x2f, 0x73, 
0x68, 0x61, 0x70, 0x65, 0x2f, 0x31, 0x00, 0x00, 0x00, 0x00, 0x00, 0x00, 
0xa6, 0xfd, 0xff, 0xff, 0x00, 0x00, 0x00, 0x01, 0x14, 0x00, 0x00, 0x00, 
0x14, 0x00, 0x00, 0x00, 0x0a, 0x00, 0x00, 0x00, 0x00, 0x00, 0x00, 0x02, 
0x38, 0x00, 0x00, 0x00, 0x90, 0xfd, 0xff, 0xff, 0x2a, 0x00, 0x00, 0x00, 
0x73, 0x65, 0x71, 0x75, 0x65, 0x6e, 0x74, 0x69, 0x61, 0x6c, 0x5f, 0x31, 
0x5f, 0x31, 0x2f, 0x66, 0x6c, 0x61, 0x74, 0x74, 0x65, 0x6e, 0x5f, 0x31, 
0x5f, 0x31, 0x2f, 0x52, 0x65, 0x73, 0x68, 0x61, 0x70, 0x65, 0x2f, 0x73, 
0x68, 0x61, 0x70, 0x65, 0x2f, 0x31, 0x00, 0x00, 0x00, 0x00, 0x00, 0x00, 
0xfa, 0xfd, 0xff, 0xff, 0x00, 0x00, 0x00, 0x01, 0x14, 0x00, 0x00, 0x00, 
0x14, 0x00, 0x00, 0x00, 0x04, 0x00, 0x00, 0x00, 0x00, 0x00, 0x00, 0x02, 
0x1c, 0x00, 0x00, 0x00, 0xe4, 0xfd, 0xff, 0xff, 0x0f, 0x00, 0x00, 0x00, 
0x61, 0x72, 0x69, 0x74, 0x68, 0x2e, 0x63, 0x6f, 0x6e, 0x73, 0x74, 0x61, 
0x6e, 0x74, 0x32, 0x00, 0x01, 0x00, 0x00, 0x00, 0x01, 0x00, 0x00, 0x00, 
0x36, 0xfe, 0xff, 0xff, 0x00, 0x00, 0x00, 0x01, 0x14, 0x00, 0x00, 0x00, 
0x14, 0x00, 0x00, 0x00, 0x08, 0x00, 0x00, 0x00, 0x00, 0x00, 0x00, 0x02, 
0x1c, 0x00, 0x00, 0x00, 0x20, 0xfe, 0xff, 0xff, 0x0f, 0x00, 0x00, 0x00, 
0x61, 0x72, 0x69, 0x74, 0x68, 0x2e, 0x63, 0x6f, 0x6e, 0x73, 0x74, 0x61, 
0x6e, 0x74, 0x31, 0x00, 0x01, 0x00, 0x00, 0x00, 0x01, 0x00, 0x00, 0x00, 
0x72, 0xfe, 0xff, 0xff, 0x00, 0x00, 0x00, 0x01, 0x14, 0x00, 0x00, 0x00, 
0x14, 0x00, 0x00, 0x00, 0x07, 0x00, 0x00, 0x00, 0x00, 0x00, 0x00, 0x02, 
0x40, 0x00, 0x00, 0x00, 0x5c, 0xfe, 0xff, 0xff, 0x32, 0x00, 0x00, 0x00, 
0x73, 0x65, 0x71, 0x75, 0x65, 0x6e, 0x74, 0x69, 0x61, 0x6c, 0x5f, 0x31, 
0x5f, 0x31, 0x2f, 0x6d, 0x61, 0x78, 0x5f, 0x70, 0x6f, 0x6f, 0x6c, 0x69, 
0x6e, 0x67, 0x31, 0x64, 0x5f, 0x33, 0x5f, 0x31, 0x2f, 0x4d, 0x61, 0x78, 
0x50, 0x6f, 0x6f, 0x6c, 0x31, 0x64, 0x2f, 0x53, 0x71, 0x75, 0x65, 0x65, 
0x7a, 0x65, 0x00, 0x00, 0x01, 0x00, 0x00, 0x00, 0x03, 0x00, 0x00, 0x00, 
0xd2, 0xfe, 0xff, 0xff, 0x00, 0x00, 0x00, 0x01, 0x14, 0x00, 0x00, 0x00, 
0x14, 0x00, 0x00, 0x00, 0x06, 0x00, 0x00, 0x00, 0x00, 0x00, 0x00, 0x02, 
0x3c, 0x00, 0x00, 0x00, 0xbc, 0xfe, 0xff, 0xff, 0x2d, 0x00, 0x00, 0x00, 
0x73, 0x65, 0x71, 0x75, 0x65, 0x6e, 0x74, 0x69, 0x61, 0x6c, 0x5f, 0x31, 
0x5f, 0x31, 0x2f, 0x63, 0x6f, 0x6e, 0x76, 0x31, 0x64, 0x5f, 0x33, 0x5f, 
0x31, 0x2f, 0x63, 0x6f, 0x6e, 0x76, 0x6f, 0x6c, 0x75, 0x74, 0x69, 0x6f, 
0x6e, 0x2f, 0x53, 0x71, 0x75, 0x65, 0x65, 0x7a, 0x65, 0x00, 0x00, 0x00, 
0x01, 0x00, 0x00, 0x00, 0x03, 0x00, 0x00, 0x00, 0x2e, 0xff, 0xff, 0xff, 
0x00, 0x00, 0x00, 0x01, 0x14, 0x00, 0x00, 0x00, 0x14, 0x00, 0x00, 0x00, 
0x05, 0x00, 0x00, 0x00, 0x00, 0x00, 0x00, 0x02, 0x1c, 0x00, 0x00, 0x00, 
0x18, 0xff, 0xff, 0xff, 0x0e, 0x00, 0x00, 0x00, 0x61, 0x72, 0x69, 0x74, 
0x68, 0x2e, 0x63, 0x6f, 0x6e, 0x73, 0x74, 0x61, 0x6e, 0x74, 0x00, 0x00, 
0x01, 0x00, 0x00, 0x00, 0x03, 0x00, 0x00, 0x00, 0x6a, 0xff, 0xff, 0xff, 
0x00, 0x00, 0x00, 0x01, 0x14, 0x00, 0x00, 0x00, 0x14, 0x00, 0x00, 0x00, 
0x04, 0x00, 0x00, 0x00, 0x00, 0x00, 0x00, 0x02, 0x1c, 0x00, 0x00, 0x00, 
0x54, 0xff, 0xff, 0xff, 0x0f, 0x00, 0x00, 0x00, 0x61, 0x72, 0x69, 0x74, 
0x68, 0x2e, 0x63, 0x6f, 0x6e, 0x73, 0x74, 0x61, 0x6e, 0x74, 0x33, 0x00, 
0x00, 0x00, 0x00, 0x00, 0xa2, 0xff, 0xff, 0xff, 0x00, 0x00, 0x00, 0x01, 
0x14, 0x00, 0x00, 0x00, 0x14, 0x00, 0x00, 0x00, 0x03, 0x00, 0x00, 0x00, 
0x00, 0x00, 0x00, 0x02, 0x3c, 0x00, 0x00, 0x00, 0x8c, 0xff, 0xff, 0xff, 
0x2d, 0x00, 0x00, 0x00, 0x73, 0x65, 0x71, 0x75, 0x65, 0x6e, 0x74, 0x69, 
0x61, 0x6c, 0x5f, 0x31, 0x5f, 0x31, 0x2f, 0x63, 0x6f, 0x6e, 0x76, 0x31, 
0x64, 0x5f, 0x32, 0x5f, 0x31, 0x2f, 0x63, 0x6f, 0x6e, 0x76, 0x6f, 0x6c, 
0x75, 0x74, 0x69, 0x6f, 0x6e, 0x2f, 0x53, 0x71, 0x75, 0x65, 0x65, 0x7a, 
0x65, 0x00, 0x00, 0x00, 0x01, 0x00, 0x00, 0x00, 0x03, 0x00, 0x00, 0x00, 
0x00, 0x00, 0x16, 0x00, 0x1c, 0x00, 0x18, 0x00, 0x17, 0x00, 0x10, 0x00, 
0x0c, 0x00, 0x08, 0x00, 0x00, 0x00, 0x00, 0x00, 0x00, 0x00, 0x07, 0x00, 
0x16, 0x00, 0x00, 0x00, 0x00, 0x00, 0x00, 0x01, 0x18, 0x00, 0x00, 0x00, 
0x18, 0x00, 0x00, 0x00, 0x02, 0x00, 0x00, 0x00, 0x00, 0x00, 0x00, 0x02, 
0x20, 0x00, 0x00, 0x00, 0x04, 0x00, 0x04, 0x00, 0x04, 0x00, 0x00, 0x00, 
0x0f, 0x00, 0x00, 0x00, 0x61, 0x72, 0x69, 0x74, 0x68, 0x2e, 0x63, 0x6f, 
0x6e, 0x73, 0x74, 0x61, 0x6e, 0x74, 0x34, 0x00, 0x00, 0x00, 0x00, 0x00, 
0x00, 0x00, 0x16, 0x00, 0x20, 0x00, 0x1c, 0x00, 0x1b, 0x00, 0x14, 0x00, 
0x10, 0x00, 0x0c, 0x00, 0x00, 0x00, 0x00, 0x00, 0x08, 0x00, 0x07, 0x00, 
0x16, 0x00, 0x00, 0x00, 0x00, 0x00, 0x00, 0x01, 0x18, 0x00, 0x00, 0x00, 
0x30, 0x00, 0x00, 0x00, 0x50, 0x00, 0x00, 0x00, 0x01, 0x00, 0x00, 0x00, 
0x00, 0x00, 0x00, 0x09, 0x6c, 0x00, 0x00, 0x00, 0x03, 0x00, 0x00, 0x00, 
0xff, 0xff, 0xff, 0xff, 0x1e, 0x00, 0x00, 0x00, 0x02, 0x00, 0x00, 0x00, 
0x0c, 0x00, 0x0c, 0x00, 0x00, 0x00, 0x00, 0x00, 0x08, 0x00, 0x04, 0x00, 
0x0c, 0x00, 0x00, 0x00, 0x08, 0x00, 0x00, 0x00, 0x14, 0x00, 0x00, 0x00, 
0x01, 0x00, 0x00, 0x00, 0xfb, 0xff, 0xff, 0xff, 0xff, 0xff, 0xff, 0xff, 
0x00, 0x00, 0x00, 0x00, 0x01, 0x00, 0x00, 0x00, 0x73, 0xd7, 0xc2, 0x3c, 
0x21, 0x00, 0x00, 0x00, 0x73, 0x65, 0x72, 0x76, 0x69, 0x6e, 0x67, 0x5f, 
0x64, 0x65, 0x66, 0x61, 0x75, 0x6c, 0x74, 0x5f, 0x6b, 0x65, 0x72, 0x61, 
0x73, 0x5f, 0x74, 0x65, 0x6e, 0x73, 0x6f, 0x72, 0x5f, 0x31, 0x32, 0x3a, 
0x30, 0x00, 0x00, 0x00, 0x03, 0x00, 0x00, 0x00, 0x01, 0x00, 0x00, 0x00, 
0x1e, 0x00, 0x00, 0x00, 0x02, 0x00, 0x00, 0x00, 0x0a, 0x00, 0x00, 0x00, 
